{"version": "1.0", "truncation": null, "padding": null, "added_tokens": [{"id": 59246, "content": "<|endoftext|>", "single_word": false, "lstrip": false, "rstrip": false, "normalized": false, "special": true}, {"id": 59247, "content": "[MASK]", "single_word": false, "lstrip": false, "rstrip": false, "normalized": false, "special": true}, {"id": 59248, "content": "[gMASK]", "single_word": false, "lstrip": false, "rstrip": false, "normalized": false, "special": true}, {"id": 59249, "content": "[sMASK]", "single_word": false, "lstrip": false, "rstrip": false, "normalized": false, "special": true}, {"id": 59250, "content": "<sop>", "single_word": false, "lstrip": false, "rstrip": false, "normalized": false, "special": true}, {"id": 59251, "content": "<eop>", "single_word": false, "lstrip": false, "rstrip": false, "normalized": false, "special": true}, {"id": 59252, "content": "<|system|>", "single_word": false, "lstrip": false, "rstrip": false, "normalized": false, "special": true}, {"id": 59253, "content": "<|user|>", "single_word": false, "lstrip": false, "rstrip": false, "normalized": false, "special": true}, {"id": 59254, "content": "<|assistant|>", "single_word": false, "lstrip": false, "rstrip": false, "normalized": false, "special": true}, {"id": 59255, "content": "<|observation|>", "single_word": false, "lstrip": false, "rstrip": false, "normalized": false, "special": true}, {"id": 59256, "content": "<|begin_of_image|>", "single_word": false, "lstrip": false, "rstrip": false, "normalized": false, "special": true}, {"id": 59257, "content": "<|end_of_image|>", "single_word": false, "lstrip": false, "rstrip": false, "normalized": false, "special": true}, {"id": 59258, "content": "<|begin_of_video|>", "single_word": false, "lstrip": false, "rstrip": false, "normalized": false, "special": false}, {"id": 59259, "content": "<|end_of_video|>", "single_word": false, "lstrip": false, "rstrip": false, "normalized": false, "special": true}, {"id": 59260, "content": "<|begin_of_audio|>", "single_word": false, "lstrip": false, "rstrip": false, "normalized": false, "special": true}, {"id": 59261, "content": "<|end_of_audio|>", "single_word": false, "lstrip": false, "rstrip": false, "normalized": false, "special": true}, {"id": 59262, "content": "<|begin_of_transcription|>", "single_word": false, "lstrip": false, "rstrip": false, "normalized": false, "special": true}, {"id": 59263, "content": "<|end_of_transcription|>", "single_word": false, "lstrip": false, "rstrip": false, "normalized": false, "special": true}, {"id": 59264, "content": "<|code_prefix|>", "single_word": false, "lstrip": false, "rstrip": false, "normalized": false, "special": true}, {"id": 59265, "content": "<|code_middle|>", "single_word": false, "lstrip": false, "rstrip": false, "normalized": false, "special": true}, {"id": 59266, "content": "<|code_suffix|>", "single_word": false, "lstrip": false, "rstrip": false, "normalized": false, "special": true}, {"id": 59267, "content": "<think>", "single_word": false, "lstrip": false, "rstrip": false, "normalized": false, "special": false}, {"id": 59268, "content": "</think>", "single_word": false, "lstrip": false, "rstrip": false, "normalized": false, "special": false}, {"id": 59269, "content": "<tool_call>", "single_word": false, "lstrip": false, "rstrip": false, "normalized": false, "special": false}, {"id": 59270, "content": "</tool_call>", "single_word": false, "lstrip": false, "rstrip": false, "normalized": false, "special": false}, {"id": 59271, "content": "<tool_response>", "single_word": false, "lstrip": false, "rstrip": false, "normalized": false, "special": false}, {"id": 59272, "content": "</tool_response>", "single_word": false, "lstrip": false, "rstrip": false, "normalized": false, "special": false}, {"id": 59273, "content": "<arg_key>", "single_word": false, "lstrip": false, "rstrip": false, "normalized": false, "special": false}, {"id": 59274, "content": "</arg_key>", "single_word": false, "lstrip": false, "rstrip": false, "normalized": false, "special": false}, {"id": 59275, "content": "<arg_value>", "single_word": false, "lstrip": false, "rstrip": false, "normalized": false, "special": false}, {"id": 59276, "content": "</arg_value>", "single_word": false, "lstrip": false, "rstrip": false, "normalized": false, "special": false}, {"id": 59277, "content": "/nothink", "single_word": false, "lstrip": false, "rstrip": false, "normalized": false, "special": true}, {"id": 59278, "content": "<|begin_of_box|>", "single_word": false, "lstrip": false, "rstrip": false, "normalized": false, "special": false}, {"id": 59279, "content": "<|end_of_box|>", "single_word": false, "lstrip": false, "rstrip": false, "normalized": false, "special": false}, {"id": 59280, "content": "<|image|>", "single_word": false, "lstrip": false, "rstrip": false, "normalized": false, "special": false}, {"id": 59281, "content": "<|video|>", "single_word": false, "lstrip": false, "rstrip": false, "normalized": false, "special": false}], "normalizer": null, "pre_tokenizer": {"type": "Sequence", "pretokenizers": [{"type": "Split", "pattern": {"Regex": "(?i:'s|'t|'re|'ve|'m|'ll|'d)|[^\\r\\n\\p{L}\\p{N}]?\\p{L}+|\\p{N}{1,3}| ?[^\\s\\p{L}\\p{N}]+[\\r\\n]*|\\s*[\\r\\n]+|\\s+(?!\\S)|\\s+"}, "behavior": "Isolated", "invert": false}, {"type": "ByteLevel", "add_prefix_space": false, "trim_offsets": true, "use_regex": false}]}, "post_processor": {"type": "Sequence", "processors": [{"type": "ByteLevel", "add_prefix_space": true, "trim_offsets": false, "use_regex": true}]}, "decoder": {"type": "ByteLevel", "add_prefix_space": true, "trim_offsets": true, "use_regex": true}, "model": {"type": "BPE", "dropout": null, "unk_token": null, "continuing_subword_prefix": null, "end_of_word_suffix": null, "fuse_unk": false, "byte_fallback": false, "ignore_merges": true, "vocab": {"\u0100": 0, "\u0101": 1, "\u0102": 2, "\u0103": 3, "\u0104": 4, "\u0105": 5, "\u0106": 6, "\u0107": 7, "\u0108": 8, "\u0109": 9, "\u010a": 10, "\u010b": 11, "\u010c": 12, "\u010d": 13, "\u010e": 14, "\u010f": 15, "\u0110": 16, "\u0111": 17, "\u0112": 18, "\u0113": 19, "\u0114": 20, "\u0115": 21, "\u0116": 22, "\u0117": 23, "\u0118": 24, "\u0119": 25, "\u011a": 26, "\u011b": 27, "\u011c": 28, "\u011d": 29, "\u011e": 30, "\u011f": 31, "\u0120": 32, "!": 33, "\"": 34, "#": 35, "$": 36, "%": 37, "&": 38, "'": 39, "(": 40, ")": 41, "*": 42, "+": 43, ",": 44, "-": 45, ".": 46, "/": 47, "0": 48, "1": 49, "2": 50, "3": 51, "4": 52, "5": 53, "6": 54, "7": 55, "8": 56, "9": 57, ":": 58, ";": 59, "<": 60, "=": 61, ">": 62, "?": 63, "@": 64, "A": 65, "B": 66, "C": 67, "D": 68, "E": 69, "F": 70, "G": 71, "H": 72, "I": 73, "J": 74, "K": 75, "L": 76, "M": 77, "N": 78, "O": 79, "P": 80, "Q": 81, "R": 82, "S": 83, "T": 84, "U": 85, "V": 86, "W": 87, "X": 88, "Y": 89, "Z": 90, "[": 91, "\\": 92, "]": 93, "^": 94, "_": 95, "`": 96, "a": 97, "b": 98, "c": 99, "d": 100, "e": 101, "f": 102, "g": 103, "h": 104, "i": 105, "j": 106, "k": 107, "l": 108, "m": 109, "n": 110, "o": 111, "p": 112, "q": 113, "r": 114, "s": 115, "t": 116, "u": 117, "v": 118, "w": 119, "x": 120, "y": 121, "z": 122, "{": 123, "|": 124, "}": 125, "~": 126, "\u0121": 127, "\u0122": 128, "\u0123": 129, "\u0124": 130, "\u0125": 131, "\u0126": 132, "\u0127": 133, "\u0128": 134, "\u0129": 135, "\u012a": 136, "\u012b": 137, "\u012c": 138, "\u012d": 139, "\u012e": 140, "\u012f": 141, "\u0130": 142, "\u0131": 143, "\u0132": 144, "\u0133": 145, "\u0134": 146, "\u0135": 147, "\u0136": 148, "\u0137": 149, "\u0138": 150, "\u0139": 151, "\u013a": 152, "\u013b": 153, "\u013c": 154, "\u013d": 155, "\u013e": 156, "\u013f": 157, "\u0140": 158, "\u0141": 159, "\u0142": 160, "\u00a1": 161, "\u00a2": 162, "\u00a3": 163, "\u00a4": 164, "\u00a5": 165, "\u00a6": 166, "\u00a7": 167, "\u00a8": 168, "\u00a9": 169, "\u00aa": 170, "\u00ab": 171, "\u00ac": 172, "\u0143": 173, "\u00ae": 174, "\u00af": 175, "\u00b0": 176, "\u00b1": 177, "\u00b2": 178, "\u00b3": 179, "\u00b4": 180, "\u00b5": 181, "\u00b6": 182, "\u00b7": 183, "\u00b8": 184, "\u00b9": 185, "\u00ba": 186, "\u00bb": 187, "\u00bc": 188, "\u00bd": 189, "\u00be": 190, "\u00bf": 191, "\u00c0": 192, "\u00c1": 193, "\u00c2": 194, "\u00c3": 195, "\u00c4": 196, "\u00c5": 197, "\u00c6": 198, "\u00c7": 199, "\u00c8": 200, "\u00c9": 201, "\u00ca": 202, "\u00cb": 203, "\u00cc": 204, "\u00cd": 205, "\u00ce": 206, "\u00cf": 207, "\u00d0": 208, "\u00d1": 209, "\u00d2": 210, "\u00d3": 211, "\u00d4": 212, "\u00d5": 213, "\u00d6": 214, "\u00d7": 215, "\u00d8": 216, "\u00d9": 217, "\u00da": 218, "\u00db": 219, "\u00dc": 220, "\u00dd": 221, "\u00de": 222, "\u00df": 223, "\u00e0": 224, "\u00e1": 225, "\u00e2": 226, "\u00e3": 227, "\u00e4": 228, "\u00e5": 229, "\u00e6": 230, "\u00e7": 231, "\u00e8": 232, "\u00e9": 233, "\u00ea": 234, "\u00eb": 235, "\u00ec": 236, "\u00ed": 237, "\u00ee": 238, "\u00ef": 239, "\u00f0": 240, "\u00f1": 241, "\u00f2": 242, "\u00f3": 243, "\u00f4": 244, "\u00f5": 245, "\u00f6": 246, "\u00f7": 247, "\u00f8": 248, "\u00f9": 249, "\u00fa": 250, "\u00fb": 251, "\u00fc": 252, "\u00fd": 253, "\u00fe": 254, "\u00ff": 255, "\u0120\u0120": 256, "\u0120\u0120\u0120\u0120": 257, "\u0120t": 258, "in": 259, "er": 260, "\u0120a": 261, "on": 262, "en": 263, "\u00e4\u00b8": 264, "re": 265, "he": 266, "\u0120s": 267, "at": 268, "\u0120\u00d0": 269, "or": 270, "es": 271, "\u0120c": 272, "\u00d0\u00be": 273, "\u0120d": 274, "an": 275, "\u0120p": 276, "\u00ef\u00bc": 277, "it": 278, "\u00e7\u013c": 279, "\u0120\u0120\u0120\u0120\u0120\u0120\u0120\u0120": 280, "\u00e7\u013c\u0126": 281, "is": 282, "\u0120the": 283, "al": 284, "ar": 285, "\u00d0\u00b5": 286, "\u00d0\u00b0": 287, "\u00e3\u0122": 288, "\u0120o": 289, "le": 290, "\u0120w": 291, "\u0120f": 292, "\u00e4\u00ba": 293, "\u0120m": 294, "\u0120\u0120\u0120": 295, "\u00d0\u00b8": 296, "ou": 297, "\u0120b": 298, "\u00d1\u0124": 299, "\u00ef\u00bc\u012e": 300, "ic": 301, "ing": 302, "ion": 303, "ed": 304, "as": 305, "nd": 306, "\u00d0\u00bd": 307, "ro": 308, "\u0120in": 309, "ent": 310, "\u00e5\u0131": 311, "\u00d1\u0123": 312, "\u00d1\u0122": 313, "\u00e6\u013e": 314, "\u00e4\u00bb": 315, "el": 316, "\u00d0\u00be\u00d0": 317, "et": 318, "\u0120n": 319, "\u0120to": 320, "st": 321, "\u0120l": 322, "\u00e5\u0127": 323, "\u00e2\u0122": 324, "\u0120of": 325, "\u00e3\u0122\u0124": 326, "\u0120h": 327, "ct": 328, "om": 329, "\u00e5\u00a4": 330, "il": 331, "\u0120and": 332, "\u00e5\u012a": 333, ".\u010a": 334, "\u0120th": 335, "\u00e8\u00bf": 336, "\u00e5\u00ae": 337, "\u00e4\u00bd": 338, "\u0120re": 339, "\u0120e": 340, "am": 341, "id": 342, "\u00e5\u0132": 343, "\u00e6\u013a": 344, "\u00e5\u013e": 345, "ch": 346, "\u00e7\u0136": 347, "im": 348, "ut": 349, "ur": 350, ";\u010a": 351, "ad": 352, "\u00d0\u00bb": 353, "ol": 354, "\u0120g": 355, "\u0120v": 356, "\u00e7\u00bb": 357, "\u0120u": 358, "\u00e4\u00b9": 359, "\u0120de": 360, "\u00e6\u012a": 361, "\u00e5\u012c": 362, "\u0120S": 363, "ig": 364, "\u00e4\u00b8\u0122": 365, "se": 366, "iv": 367, "\u00e3\u0123": 368, "ot": 369, "\u00e5\u013d": 370, "\u00e8\u00af": 371, "\u00e6\u013a\u00af": 372, "\u00e6\u0138": 373, "\u0120\u0120\u0120\u0120\u0120\u0120\u0120": 374, "\u0120T": 375, "ce": 376, "\u0120=": 377, "\u010a\u010a": 378, "\u00d1\u0125": 379, "\u00d0\u00ba": 380, "\u00e5\u00b0": 381, "\u0120A": 382, "\u0120\u0120\u0120\u0120\u0120\u0120\u0120\u0120\u0120\u0120\u0120\u0120\u0120\u0120\u0120\u0120": 383, "\u0120y": 384, "\u00e5\u0143": 385, "\u0120(": 386, "\u0120C": 387, "\u00e6\u0139": 388, "ation": 389, "qu": 390, "ra": 391, "\u0120I": 392, "ul": 393, "--": 394, "em": 395, "\u00e3\u0122\u0123": 396, "os": 397, "\u0120is": 398, "\u00e8\u00ae": 399, "ow": 400, "\u00e4\u00bc": 401, "\u00e5\u00b9": 402, "od": 403, "if": 404, "est": 405, "\u00e5\u012f": 406, "\u0120st": 407, "ag": 408, "\u00d1\u0131": 409, "\u00e6\u013f": 410, "\u00e5\u013e\u00a8": 411, "\u0120for": 412, "un": 413, "\u0120con": 414, "\u00e4\u00b8\u012f": 415, "\u00d8\u00a7": 416, "\u00e6\u013e\u012b": 417, "\u00d0\u00b2": 418, "ers": 419, "ir": 420, "\u00d0\u00bc": 421, "\u0120{": 422, "\u00d1\u012d": 423, "\u0120be": 424, "\u0120\"": 425, "ay": 426, "\u00e4\u00ba\u00ba": 427, "\u00e6\u012b": 428, "\u00e5\u00bc": 429, "ab": 430, "\u00e9\u0129": 431, "ter": 432, "\u0120M": 433, "\u00e5\u00ba": 434, "\u0120P": 435, "ate": 436, "th": 437, "\u00e4\u00ba\u0128": 438, "\u0120on": 439, "ly": 440, "\u00e5\u00b7": 441, "\u00e8\u00a1": 442, "us": 443, "\u0120\u00d0\u00bf": 444, "ac": 445, "\u00e8\u0122": 446, "\u0109\u0109": 447, "\u00e6\u0137": 448, "\u00e5\u0128": 449, "\u00d1\u012e": 450, "\u00e5\u0129": 451, "ie": 452, "\u00e5\u00af": 453, "\u00e5\u00b8": 454, "\u0120you": 455, "\u00e5\u00be": 456, "\u0120pro": 457, "\u00d0\u00b4": 458, "pe": 459, "\u00e4\u00b8\u0143": 460, "um": 461, "\u00e5\u012e": 462, "ith": 463, "ist": 464, "\u00e9\u0122": 465, "\u00e4\u00b8\u00ba": 466, "\u00d1\u0123\u00d1\u0124": 467, "\u00e6\u0122": 468, "\u0120al": 469, "oc": 470, "\u00c3\u00a9": 471, "\u0120B": 472, "\u00e7\u013d": 473, "\u00e5\u0134": 474, "\u0120D": 475, "\u0120that": 476, "ort": 477, "ve": 478, "res": 479, "\u00e8\u00a7": 480, "\u0125\u00bd": 481, "\u0120k": 482, "ver": 483, "ess": 484, "te": 485, "end": 486, "\u0120an": 487, "\u0120wh": 488, "\u00e6\u0142": 489, "\u00e5\u0134\u012e": 490, "and": 491, "\u0120\u00d0\u00b2": 492, ",\u010a": 493, "\u0120{\u010a": 494, "ht": 495, "\u00e7\u00a7": 496, ")\u010a": 497, ");\u010a": 498, "//": 499, "\u0120as": 500, "op": 501, "\u00d1\u0129": 502, "\u0120r": 503, "\u0120com": 504, "\u00e7\u0130": 505, "\u00e5\u00a4\u00a7": 506, "\u00e3\u0124": 507, "\u00e6\u012c": 508, "pp": 509, "ri": 510, "\u0120E": 511, "\u0120\u00d1\u0123": 512, "\u0120<": 513, "\u00e5\u00b1": 514, "\u0120}": 515, "\u00e5\u00a5": 516, "\u0120with": 517, "\u0120R": 518, "\u00e4\u00bb\u00a5": 519, "\u00e8\u00b4": 520, "\u00d0\u00b5\u00d0\u00bd": 521, "\u00e4\u00b8\u00aa": 522, "\u0120F": 523, "\u0120it": 524, "\u00e8\u00b5": 525, "\u00e6\u0136": 526, "\u0120L": 527, "\u00e5\u00bd": 528, "\u00e6\u0143": 529, "\u00e5\u00bf": 530, ">\u010a": 531, "\u00e3\u0125": 532, "ak": 533, "\u00e6\u00b0": 534, "\u00e7\u012b": 535, "\u0120se": 536, "ass": 537, "\u00e6\u00b3": 538, "\u00e5\u0130": 539, "\u00e9\u0139": 540, "\u0120\u00d0\u00bd": 541, "\u00e8\u00a6": 542, "\u0120\u00d8": 543, "\u00e2\u0122\u013e": 544, "pt": 545, "\u00e8\u00bf\u013b": 546, "\u0120ex": 547, "\u00e7\u0136\u0141": 548, "\u00d1\u0122\u00d0\u00b0": 549, "\u00e2\u0122\u013b": 550, "\u00e7\u0136\u00a8": 551, "\u00e6\u012a\u0133": 552, "\u00e2\u0122\u013f": 553, "\u0120H": 554, "ere": 555, "ill": 556, "\u0120or": 557, "\u00e8\u00a6\u0123": 558, "\u00e8\u0129": 559, "ub": 560, "\u0120-": 561, "ment": 562, "\u00e4\u00b8\u012c": 563, "=\"": 564, "\u00e6\u0140": 565, "\u00e9\u013f": 566, "\u00e9\u013b": 567, "ant": 568, "ame": 569, "\u00e5\u0143\u00a6": 570, "\u0120W": 571, "\u00e6\u0139\u00b6": 572, "\u0120N": 573, "\u00d0\u00be\u00d0\u00b2": 574, "\u0120en": 575, "\u0120qu": 576, "\u00d0\u00b7": 577, "\u0120\u0120\u0120\u0120\u0120\u0120\u0120\u0120\u0120\u0120\u0120": 578, "\u00e1\u00bb": 579, "\u00d9\u0126": 580, "\u0120\u0120\u0120\u0120\u0120": 581, "og": 582, "\u0120G": 583, "art": 584, "ue": 585, "\u0120ne": 586, "ore": 587, "\u0120le": 588, "pl": 589, "iz": 590, "\u00e7\u00ba": 591, "\u0120*": 592, "\u00e5\u013d\u00bd": 593, "\u010d\u010a": 594, "rom": 595, "ction": 596, "\u0120\u00d0\u00b8": 597, "de": 598, "\u0120are": 599, "\u00e5\u0133": 600, "ity": 601, "\u00e6\u00b5": 602, "\u00e5\u00af\u00b9": 603, "\u00e4\u00bc\u013c": 604, "\u00e4\u00bf": 605, "\u00e6\u00b2": 606, "\u00e6\u0130": 607, "\u00e5\u00b9\u00b4": 608, "\u0120un": 609, "**": 610, "\u00e8\u0125\u00bd": 611, "\u0120j": 612, "ain": 613, "\u00e5\u0131\u00af": 614, "\u00d1\u0127": 615, "\u00e4\u00bd\u013e": 616, "\u00d0\u00bf": 617, "\u0120he": 618, "\u0120ch": 619, "\u00e5\u0131\u0133": 620, "age": 621, "ine": 622, "\u0120\u00d0\u00be": 623, "\u00e7\u0143": 624, "\u00e5\u012a\u00b0": 625, "\u00e8\u00a1\u012e": 626, "..": 627, "\u0120cl": 628, "\u00e7\u0132": 629, "\u00e5\u0129\u00ba": 630, "\u00e6\u013f\u00a5": 631, "ap": 632, "----": 633, "\u00e8\u00be": 634, "\u0120\u00d9": 635, "\u0120at": 636, "our": 637, "\u00e7\u013e": 638, "\u00e6\u0125": 639, "ies": 640, "\u00c3\u00a1": 641, "\u00e9\u00a2": 642, "\u0120this": 643, "ive": 644, "\u00e6\u012a\u0132": 645, "\u00d0\u00b9": 646, "ld": 647, "\u0120'": 648, "\u00e4\u00ba\u0130": 649, "\u00e5\u013e\u00b0": 650, "port": 651, "\u0120ha": 652, "ia": 653, "con": 654, "\u00e6\u00af": 655, "ial": 656, "ect": 657, "\u0120la": 658, "ge": 659, "ure": 660, "\u00d0\u00b1": 661, "\u0120\u00d0\u00ba": 662, "\u00e6\u012e": 663, "##": 664, "\u0120O": 665, "\u00e4\u00b8\u013c": 666, "\u00e5\u012a\u0128": 667, "\u0120tr": 668, "\u00e5\u00a6": 669, "\u00d1\u0122\u00d0\u00b5": 670, "ost": 671, "tr": 672, "orm": 673, "ight": 674, "cl": 675, "\u00e6\u0138\u00b9": 676, "\u00e5\u0141": 677, "\u0120The": 678, "ust": 679, "\u0120from": 680, "\u00e3\u0122\u0124\u010a": 681, "ell": 682, "\u00d8\u00b1": 683, "all": 684, "\u00e6\u0126": 685, "\u00e5\u0135": 686, "ff": 687, "\u00e7\u00ab": 688, "ud": 689, "\u00e4\u00bb\u0138": 690, "ult": 691, "\u00e6\u012d": 692, "per": 693, "\u00e5\u012b": 694, "\u00e7\u0132\u0128": 695, "ich": 696, "\u00d0\u00b3": 697, "ile": 698, "\u00e8\u00bd": 699, "\u0120\u00d0\u00b4": 700, "able": 701, "\u00e5\u00b0\u00b1": 702, "\u0120we": 703, "\u00e4\u00b8\u012d": 704, "\u00e5\u0132\u0130": 705, "\u0120not": 706, "\u00e4\u00bb\u00ac": 707, "out": 708, "urn": 709, "\u00e5\u00b7\u00a5": 710, "ok": 711, "\u00e8\u0129\u00aa": 712, "\u0120su": 713, "\u0120by": 714, "\u00e5\u012c\u00a8": 715, "\u00d0\u00b5\u00d1\u0124": 716, "ex": 717, "\u00e8\u0124": 718, "\u00e9\u013a": 719, "\u00d0\u00bd\u00d0\u00b8": 720, "int": 721, "\u00e4\u00be": 722, "\u00d9\u0128": 723, "\u00c3\u00b3": 724, "()": 725, "\u00e9\u0123": 726, "\u00e7\u00ae": 727, "ans": 728, "\u00e6\u00b3\u0137": 729, "ire": 730, "\u00e5\u00a4\u013c": 731, "\u00e8\u00bf\u0129": 732, "ard": 733, "ack": 734, "\u00e4\u00b9\u0141": 735, "</": 736, "com": 737, "ind": 738, "\u00d0\u00be\u00d0\u00bb": 739, "ib": 740, "\u00e4\u00b9\u012d": 741, "\u0120U": 742, "==": 743, "ip": 744, "\u0120do": 745, "rou": 746, "are": 747, "\u00d1\u0130": 748, "\u0120can": 749, "\u00e5\u00ae\u00b6": 750, "\u00e5\u00ae\u013c": 751, "\u00e6\u0122\u00a7": 752, "ata": 753, "\u0120im": 754, "\u00e5\u0143\u0132": 755, "to": 756, "\u00e4\u00b8\u0130": 757, "\u00e7\u0130\u00b0": 758, "\u00e8\u00bf\u013d": 759, "\u00e6\u00b1": 760, "ord": 761, "\u00d0\u00be\u00d0\u00bc": 762, "nt": 763, "\u00e4\u00bd\u0135": 764, "\u0120sh": 765, "\u00e7\u00ac": 766, "\u00e5\u00ae\u0140": 767, "\u00e6\u00b4": 768, "\u00e7\u00bb\u0131": 769, "\u00e8\u0122\u012e": 770, "ice": 771, "\u00e7\u00a8": 772, "\u0120$": 773, "ik": 774, "\u0120was": 775, "\u00e7\u00bd": 776, "\u00e9\u00ab": 777, "\u0120\u0120\u0120\u0120\u0120\u0120\u0120\u0120\u0120\u0120\u0120\u0120\u0120\u0120\u0120\u0120\u0120\u0120\u0120\u0120\u0120\u0120\u0120\u0120\u0120\u0120\u0120\u0120\u0120\u0120\u0120\u0120": 778, "\u0120if": 779, "\u00ef\u00bc\u013c": 780, "ng": 781, "\u00e5\u012e\u0138": 782, "\u00c3\u0143": 783, "\u00d0\u00be\u00d0\u00b4": 784, "\u00d0\u00be\u00d1\u0122": 785, "\u00d0\u00b0\u00d1\u0124": 786, "\u0120J": 787, "\u0120V": 788, "\u0120have": 789, "\u0120\u00d8\u00a7": 790, "\u00e1\u00ba": 791, "\u00e9\u0125": 792, "\u0120your": 793, "\u00e7\u0124": 794, "lic": 795, "\u0120z": 796, "\u00d0\u00bd\u00d1\u012d": 797, "\u00e9\u00ab\u013a": 798, "\u0120\u00d0\u00bc": 799, "\u0120ab": 800, "ne": 801, "av": 802, "\u00d1\u0128": 803, "\u00d0\u00b8\u00d1\u0124": 804, "\u00e9\u013f\u00a2": 805, "\u00d0\u00bd\u00d0\u00be": 806, "\u0120\u00d0\u00bd\u00d0\u00b0": 807, "ast": 808, "turn": 809, "\u0120pl": 810, "ase": 811, "\u00d1\u012a": 812, "\u0120\u00c3": 813, "\u00e6\u00b8": 814, "\u0120us": 815, "\u00e5\u0132\u012e": 816, "\u0120\u00d1\u0124": 817, "\u00e5\u012c\u013d": 818, "\u00e5\u00a6\u0124": 819, "\u00e5\u0127\u00b6": 820, "\u00e9\u0137": 821, "\u00e6\u00ac": 822, "ide": 823, "\u00e4\u00b8\u00bb": 824, "sp": 825, "\u00e6\u013e\u00ac": 826, "\u00e6\u0131": 827, "\u0120[": 828, "cc": 829, "\u00e7\u0141": 830, "\u0120K": 831, "\u00e7\u00a4": 832, "act": 833, "ob": 834, "\u00e5\u0123": 835, "\u00e6\u012b\u0122": 836, "::": 837, "\u00e6\u0138\u0129": 838, "\u0120\u00e2\u0122": 839, "\u00e7\u0143\u012b": 840, "\u0120ad": 841, "\u00d0\u00b5\u00d0\u00bb": 842, "form": 843, "ould": 844, "\u00db\u012e": 845, "\u0120comp": 846, "\u0120\u00ce": 847, "\u00d0\u00b6": 848, "ens": 849, "ork": 850, "\u0120\u0120\u0120\u0120\u0120\u0120\u0120\u0120\u0120\u0120\u0120\u0120\u0120\u0120\u0120": 851, "\u00d9\u012c": 852, "\u00e9\u00a1": 853, "ach": 854, "\u00d0\u00b5\u00d1\u0122": 855, "\u00e6\u013d": 856, "\u00e5\u0132\u012a": 857, "\u00e8\u00b7": 858, "\u00e5\u00bc\u0122": 859, "\u00e5\u0127\u00ac": 860, "\u00e8\u00b0": 861, "\u00d0\u00b0\u00d0\u00bb": 862, "ru": 863, "\u00e5\u00b0\u0131": 864, "\u00e5\u0122": 865, "\u00e7\u013f": 866, "\u00d9\u0127": 867, "\u00e2\u0122\u013bs": 868, "ime": 869, "\u00e4\u00ba\u00a7": 870, "get": 871, "\u00d0\u00be\u00d0\u00b3": 872, "\u0120all": 873, "\u00e5\u00be\u0139": 874, "\u00e9\u0125\u00a8": 875, "ions": 876, "ype": 877, "one": 878, "\u0120class": 879, "\u00d9\u012a": 880, "\u00e8\u0122\u0127": 881, "\u00e8\u00af\u00b4": 882, "\u00e5\u0127\u00a8": 883, "\u00c3\u00a4": 884, "ign": 885, "du": 886, "\u0120pr": 887, "\u00e5\u00bf\u0125": 888, "\u0120will": 889, "\u00e5\u00ba\u00a6": 890, "\u0120cont": 891, "ert": 892, "\u00d8\u00aa": 893, "\u0120In": 894, "\u00e6\u0137\u00b0": 895, "ite": 896, "\u00e6\u012f": 897, "\u00e6\u0138\u00b0": 898, "\u0120el": 899, "\u0120me": 900, "\u00e5\u00bb": 901, "\u00ef\u00bc\u012a": 902, "ace": 903, "\u0120\u00d0\u00bf\u00d1\u0122": 904, "\u00e9\u0125\u00bd": 905, "\u00e5\u00a5\u00bd": 906, "\"\u010a": 907, "\u00e5\u0127\u00b3": 908, "\",": 909, "\u00ef\u00bc\u012b": 910, "\u00e7\u00a7\u012f": 911, "\u00e7\u00b3": 912, "ont": 913, "\u0120per": 914, "\u00d8\u00af": 915, "\u0120des": 916, "ode": 917, "\u00e5\u013f": 918, "erv": 919, "ber": 920, "ated": 921, ":\u010a": 922, "\u00e9\u013d": 923, "\u00e5\u012a\u00b6": 924, "ical": 925, "ang": 926, "ath": 927, "In": 928, "\u00e9\u0129\u012f": 929, "\u0120que": 930, "\u00e9\u0139\u00b4": 931, "\u00e7\u0126": 932, "\u00e5\u00ba\u0136": 933, "ong": 934, "ance": 935, "\u00e6\u0139\u00a5": 936, "\u0120und": 937, "ents": 938, "\u00e5\u012b\u012f": 939, "\u0120par": 940, "\u00e5\u0128\u0127": 941, "ous": 942, "\u00c3\u00bc": 943, "\u00e4\u00ba\u012d": 944, "\u00e9\u013c": 945, "\u00e6\u013e\u00ba": 946, "ome": 947, "io": 948, "\u00d0\u00be\u00d1\u0124": 949, "\u0120:": 950, "\u0120Th": 951, "\u00e7\u0124\u00b9": 952, "\u00e9\u0129\u0131": 953, "\u00e8\u012b": 954, "\u00e7\u00a9": 955, "ps": 956, "ail": 957, "\u00e9\u0122\u013c": 958, "\u00e5\u012c\u0142": 959, "ck": 960, "\u0120\u00d0\u00b1": 961, "\u00e9\u0124": 962, "ence": 963, "\u00e6\u013b": 964, "au": 965, "so": 966, "\u00e7\u00be": 967, "\u00e8\u00b6": 968, "fer": 969, "\u00c4\u00b1": 970, "\u00e7\u00ac\u00ac": 971, "\u00e4\u00bd\u0142": 972, "\u00e9\u0137\u00bf": 973, "\u0120ar": 974, "ll": 975, "ov": 976, "}\u010a": 977, "\u0120i": 978, "\u00d9\u0129": 979, "\u00e5\u00b8\u0124": 980, "\u00e4\u00b8\u0122\u00e4\u00b8\u00aa": 981, "\u0120\u00d0\u00b7": 982, "\u00e5\u013d\u0142": 983, "\u00e5\u00a4\u00a9": 984, "\u00e6\u013e\u0122": 985, "\u0120res": 986, "ary": 987, "\u00e5\u00a2": 988, "\u00e8\u00a1\u00a8": 989, "\u00d1\u0123\u00d0\u00ba": 990, "\u00d0\u00be\u00d0\u00b9": 991, "\u00e7\u0142": 992, "\u0120}\u010a": 993, "\u00e8\u012c": 994, "ject": 995, "\u00d0\u00b5\u00d0\u00bd\u00d0\u00b8": 996, "xt": 997, "ations": 998, "err": 999, "\u00e7\u013f\u0122": 1000, "\u00e7\u013d\u00b8": 1001, "\u00e7\u00a8\u012d": 1002, "ual": 1003, "\u00d0\u00bd\u00d0\u00b0": 1004, "\u00e9\u0123\u0135": 1005, "ress": 1006, "\u00e5\u00a7": 1007, "\u00e6\u0141": 1008, "\u00e7\u00b3\u00bb": 1009, "ild": 1010, "\u00e5\u00bb\u00ba": 1011, "\u00e7\u012b\u00a9": 1012, "ition": 1013, "\u00e8\u0123": 1014, "\u0120dis": 1015, "\u00e5\u00bd\u0135": 1016, "ft": 1017, "\u00e6\u0131\u0132": 1018, "\u00e9\u00a3": 1019, "\u00e5\u00b1\u0137": 1020, "\u00e7\u0126\u00b6": 1021, ").": 1022, "\u0120has": 1023, "\u00e5\u0131\u012c": 1024, "elf": 1025, "The": 1026, "ther": 1027, "\u00e6\u0137\u013b": 1028, "ake": 1029, "\u00e8\u00bf\u013a": 1030, "\u0120.": 1031, "pro": 1032, "che": 1033, "--------": 1034, "\u00e8\u00ae\u00be": 1035, "ear": 1036, "\u00ce\u00b1": 1037, "\u0120\u00d8\u00a7\u00d9\u0126": 1038, "\u00e5\u012e\u00ba": 1039, "li": 1040, "\u00e6\u0125\u0127": 1041, "\u0120\u00d1": 1042, "div": 1043, "\u00e6\u00b0\u00b4": 1044, "ook": 1045, "\u0120go": 1046, "\u00e7\u0137": 1047, "\u00e5\u0135\u0123": 1048, "\u00e6\u00b6": 1049, "),": 1050, "ring": 1051, "\u00e6\u0123": 1052, "\u00e8\u00b5\u0126": 1053, "\u0120//": 1054, "\u00e4\u00b8\u012b": 1055, "\u0120new": 1056, "\u00e6\u0126\u0131": 1057, "\u00e4\u00bb\u0130": 1058, "\u0120return": 1059, "ock": 1060, "ize": 1061, "\u00e7\u00ae\u00a1": 1062, "ey": 1063, "\u00d0\u00bb\u00d0\u00b8": 1064, "\u00e7\u00b1": 1065, "\u0120out": 1066, "\u0120|": 1067, "\u00e6\u013e\u0141": 1068, "\u0120man": 1069, "\u00e7\u013b": 1070, "\u0120te": 1071, "(\"": 1072, "enc": 1073, "\u00e7\u0139": 1074, "\u00e7\u00b4": 1075, "\u0120so": 1076, "\u00e5\u00a4\u0138": 1077, "\u00e5\u00bc\u0131": 1078, "\u00e6\u013a\u0130": 1079, "\u00e6\u0140\u013e": 1080, "\u0120\u00d1\u0125": 1081, "\u00e4\u00bd\u012f": 1082, "gh": 1083, "\u00e4\u00bd\u00bf": 1084, "\u00e7\u013d\u00ae": 1085, "\u0120&": 1086, "\u0120pre": 1087, "\u00e7\u013e\u012d": 1088, "\u00e5\u012c\u00a1": 1089, "\u00e9\u013e": 1090, "\u00cf\u0126": 1091, "lo": 1092, "\u0120/": 1093, "\u00e7\u0136\u00b5": 1094, "ount": 1095, "ph": 1096, "alue": 1097, "\u00e6\u0139\u0142": 1098, "\u00e9\u0127": 1099, "\u00e8\u00b5\u00b7": 1100, "\u00d1\u012b": 1101, "\u00e8\u0125": 1102, "ors": 1103, "****": 1104, "vel": 1105, "'s": 1106, "\u00e6\u00b0\u0133": 1107, "ep": 1108, "\u0120their": 1109, "ory": 1110, "\u00e5\u00b0\u0128": 1111, "\u00e6\u013e\u012a": 1112, "\u00e6\u0143\u00a4": 1113, "}\u010a\u010a": 1114, "\u00d0\u00b0\u00d0\u00ba": 1115, "\u00e7\u00bb\u0135": 1116, "\u00e9\u0129\u012e": 1117, "\u00e7\u00a5": 1118, "\u00e7\u00a1": 1119, "\u0120but": 1120, "\u00ce\u00bf": 1121, "\u00e7\u0138": 1122, "\u00d1\u0123\u00d1\u0131": 1123, "\u00e6\u012a\u0138": 1124, "ple": 1125, "\u00e5\u00b9\u00b6": 1126, "\u0120more": 1127, "\u00e4\u00bb\u00a3": 1128, "ec": 1129, "\u0120app": 1130, "\u00e5\u0127\u00a5": 1131, "\u00e5\u0131\u00af\u00e4\u00bb\u00a5": 1132, "\u00e7\u00bc": 1133, "\">": 1134, "\u0120St": 1135, "\u00e4\u00bf\u00a1": 1136, "\u00e5\u00b9\u00b3": 1137, "\u00e4\u00bd\u0128": 1138, "\u00e9\u00a2\u013a": 1139, "\u00e9\u0136": 1140, "\u00e4\u00bf\u013f": 1141, "ose": 1142, "\u0120sp": 1143, "gr": 1144, "\u00d0\u00b5\u00d0\u00bc": 1145, "\u00e4\u00b9\u012a": 1146, "\u00e5\u00be\u012a": 1147, "\u00e8\u00ae\u00a1": 1148, "\u00e9\u0124\u00a3": 1149, "\u0120they": 1150, "St": 1151, "\u00e8\u012d": 1152, "\u00e6\u00b2\u00a1": 1153, "\u00d0\u00b0\u00d0\u00bd": 1154, "\u0120em": 1155, "ci": 1156, "\u00e4\u00ba\u013d": 1157, "\u0120inter": 1158, "\u0120#": 1159, "\u0120which": 1160, "\u00e5\u0141\u00ba": 1161, "put": 1162, "\u0109\u0109\u0109\u0109": 1163, "\u00e6\u00b4\u00bb": 1164, "we": 1165, "ink": 1166, "\u0120up": 1167, "\u00c3\u00b6": 1168, "\u00e5\u00b8\u00b8": 1169, "\u0120+": 1170, "\u0120part": 1171, "\u00e6\u0136\u00bf": 1172, "\u0120et": 1173, "\u00e6\u00af\u0136": 1174, "\u00e6\u0142\u00b7": 1175, "\u0120\u0120\u0120\u0120\u0120\u0120\u0120\u0120\u0120": 1176, "\u0120\u00d0\u00bd\u00d0\u00b5": 1177, "\u0120no": 1178, "\u00e8\u0126": 1179, "\u00ce\u00b9": 1180, "\u00e6\u00a1": 1181, "cri": 1182, "\u0120est": 1183, "row": 1184, "ark": 1185, "\u00e6\u012a\u0133\u00e4\u00bb\u00ac": 1186, "\u0120get": 1187, "\u00e8\u0132": 1188, "ry": 1189, "\u00e8\u00a2": 1190, "\u00c3\u0142": 1191, "\u00e6\u013d\u00b4": 1192, "\u00e4\u00bb\u00b6": 1193, "\u0120sa": 1194, "cre": 1195, "\u00e6\u00b7": 1196, "\u0120\u00c4": 1197, "ier": 1198, "\u0120\u00e2\u0122\u013e": 1199, "ublic": 1200, "\u00e8\u00a7\u00a3": 1201, "\u00e9\u0139\u00ae": 1202, "\u00e6\u0143\u00a3": 1203, "\u00e4\u00ba\u012e": 1204, "\u00d0\u00be\u00d0\u00bd": 1205, "\u00e5\u00a3": 1206, "\u00e7\u012b\u00b9": 1207, "\u00e6\u00ac\u00a1": 1208, "own": 1209, "\u00e5\u012a\u00a9": 1210, "\u00ef\u00bc\u013d": 1211, ".s": 1212, "\u00e7\u00b2": 1213, "\u00e5\u0130\u00bb": 1214, "\u00e8\u012f": 1215, "\u0120Y": 1216, "->": 1217, "\u0120\u00d1\u0129": 1218, "\u00e7\u012a": 1219, "__": 1220, "ung": 1221, "\u00e6\u0125\u00b3": 1222, "\u00e5\u013e\u00ba": 1223, "\u00e5\u0133\u013a": 1224, "\u0120ev": 1225, "\u00e5\u0132\u012f": 1226, "ew": 1227, "\u0120col": 1228, "\u0120one": 1229, "\u00e3\u0122\u012d": 1230, "iel": 1231, "\u00d0\u00ba\u00d0\u00b0": 1232, "\u0120work": 1233, "\u0120\u00d0\u00b3": 1234, "\u00d8\u00b3": 1235, "\u00e9\u00aa": 1236, "\u0120es": 1237, "yst": 1238, "ER": 1239, "\u0120di": 1240, "\u0120const": 1241, "\u00e5\u0131\u013a": 1242, "ma": 1243, "ss": 1244, "\u00d0\u00bb\u00d0\u00b0": 1245, "\u00e7\u00bb\u0126": 1246, "\u0120\u00e2\u0122\u0135": 1247, "import": 1248, "\u00e7\u00bb\u0141": 1249, "\u00e7\u0136\u00b1": 1250, "\u00e3\u0122\u012c": 1251, "\u00e5\u0140": 1252, "\u00e9\u0134": 1253, "iew": 1254, "\u00e8\u012a": 1255, "\u00d0\u00be\u00d0\u00b1": 1256, "\u00e5\u00ae\u012b": 1257, "lect": 1258, "\u00e6\u013e\u00af": 1259, "\u00e5\u0137": 1260, "pr": 1261, "par": 1262, "ull": 1263, "her": 1264, "der": 1265, "ick": 1266, "\u00e7\u0141\u00a5": 1267, "ient": 1268, "\u0120</": 1269, "\u00e6\u012b\u012d": 1270, "\u00e8\u00ba": 1271, "\u00d1\u0138": 1272, "ree": 1273, "tt": 1274, "\u00d0\u00be\u00d1\u0123": 1275, "\u00e6\u012f\u00ae": 1276, "\u00e7\u0125": 1277, "ef": 1278, "\u00e7\u0123": 1279, "\u00d0\u00be\u00d0\u00b3\u00d0\u00be": 1280, "\u00d0\u00b2\u00d0\u00b0": 1281, "\u0120Ch": 1282, "\u00e5\u013d\u00be": 1283, ";\u010a\u010a": 1284, "\u00e6\u0130\u00a5": 1285, "ater": 1286, "pec": 1287, "\u0120about": 1288, "name": 1289, "\u00e9\u0129\u0133": 1290, "\u00e7\u00be\u0130": 1291, "\u00e5\u0132\u0133": 1292, "ption": 1293, "====": 1294, "\u00e7\u00a4\u00be": 1295, "\u0120pe": 1296, "\u0120ro": 1297, "ely": 1298, "\u00e5\u00b7\u00a5\u00e4\u00bd\u013e": 1299, "_t": 1300, "\u0120comm": 1301, "\u0120@": 1302, "led": 1303, "\u00e5\u00bd\u00a2": 1304, "ings": 1305, "\u0120\u00d9\u0127": 1306, "\u00e6\u0142\u0129": 1307, "\u00e6\u00ba": 1308, "\u00e5\u012f\u0123": 1309, "\u00d1\u0128\u00d0\u00b8": 1310, "ener": 1311, "('": 1312, "\u0120def": 1313, "\u00e4\u00b8\u00a4": 1314, "ific": 1315, "ound": 1316, "\u00e5\u0132\u0126": 1317, "\u00e5\u0130\u0141": 1318, "\u00e8\u00b4\u00a8": 1319, "ery": 1320, "iss": 1321, "ext": 1322, "\u0120del": 1323, "pect": 1324, "eg": 1325, "\u00e8\u00a2\u00ab": 1326, "\u00d8\u00a8": 1327, "\u00e8\u00ba\u00ab": 1328, "\u00d1\u0122\u00d1\u0125": 1329, "IN": 1330, "\u00e3\u0122\u0124\u010a\u010a": 1331, "####": 1332, "\u00e5\u0131\u00aa": 1333, "px": 1334, "ons": 1335, "\u00e3\u0123\u00ae": 1336, "\u00ef\u00bc\u0141": 1337, "\u0120time": 1338, "\u0120also": 1339, "unction": 1340, "\u00d1\u0124\u00d0\u00be": 1341, "\u00ce\u00bd": 1342, "anc": 1343, "\u0120int": 1344, "\u00e7\u00ab\u012d": 1345, "\u0120our": 1346, "arg": 1347, "\u00e8\u0129\u00aa\u00e5\u00b7": 1348, "\u00e5\u0138": 1349, "\u0120\u00d1\u0122\u00d0\u00b0": 1350, "\u00e6\u0126\u0141": 1351, "ON": 1352, "ys": 1353, "\u00e5\u012f\u0137": 1354, "text": 1355, "erm": 1356, "ool": 1357, "cess": 1358, "\u00e9\u00a6": 1359, "\u00ce\u00b5": 1360, "\u00e8\u00a7\u0126": 1361, "\u0120ob": 1362, "\u0120ag": 1363, "\u00e7\u00a7\u0133": 1364, "ek": 1365, "\u0120\u00c4\u0133": 1366, "\u0120any": 1367, "ug": 1368, "\u0120\u010a": 1369, "\u00e7\u00a6": 1370, "\u00e7\u00b1\u00bb": 1371, "ann": 1372, "\u00e5\u0131\u00b8": 1373, "\u0120am": 1374, "ari": 1375, "\u00e5\u0123\u013c": 1376, "\u00e5\u00bc\u00ba": 1377, "und": 1378, "\u00e5\u00a4\u0126": 1379, "\u00d0\u00bb\u00d1\u0131": 1380, "\u0120\u00c2": 1381, "ays": 1382, "\u00e8\u0129\u00aa\u00e5\u00b7\u00b1": 1383, "{\u010a": 1384, "\u00e8\u00b7\u00af": 1385, "\u00e6\u012e\u0129": 1386, "\u00d0\u00b8\u00d0\u00bc": 1387, "\u0120der": 1388, "\u0120\u0120\u0120\u0120\u0120\u0120\u0120\u0120\u0120\u0120\u0120\u0120\u0120\u0120\u0120\u0120\u0120\u0120\u0120": 1389, "\u00e6\u012c\u0122": 1390, "\u0120other": 1391, "\u0120cre": 1392, "',": 1393, "\u00e6\u00ae": 1394, "ise": 1395, "az": 1396, "\u0120who": 1397, "\u00d8\u00a9": 1398, "\u00e9\u0135": 1399, ".com": 1400, "\u00e8\u00bf\u013d\u00e8\u00a1\u012e": 1401, "\u00e5\u0131\u0133\u00e5\u00b1\u0137": 1402, "\u0120over": 1403, "\u0120tra": 1404, "low": 1405, "ystem": 1406, "\u0120\u00d0\u00b0": 1407, "\u00e8\u00a3": 1408, "les": 1409, "rit": 1410, "\u00e9\u013e\u0122": 1411, "\u00e6\u0124": 1412, "ade": 1413, "\u0120\u00d0\u00b7\u00d0\u00b0": 1414, "\u0120end": 1415, "\u00e6\u00b5\u0123": 1416, "up": 1417, "\u00c3\u00b3n": 1418, "\u00e6\u00b1\u0124": 1419, "\u00e5\u0140\u012d": 1420, "\u0120set": 1421, "://": 1422, "\u00e5\u00b7\u00b2": 1423, "\u0120=>": 1424, "\u00e5\u0127\u0125": 1425, "ange": 1426, "\u00e4\u00ba\u00a4": 1427, "\u00e5\u00af\u00bc": 1428, "uch": 1429, "\u00e7\u0142\u0136": 1430, "ates": 1431, "eth": 1432, "\u00e7\u00bd\u0133": 1433, "-s": 1434, "\u00e4\u00bc\u0142": 1435, "\u00e4\u00bb\u00bb": 1436, "\u00e6\u013e\u012f": 1437, "\u0120acc": 1438, "\u0120use": 1439, "\u00e5\u0131\u00a3": 1440, "\u0120ma": 1441, "\u00e5\u013d\u0140": 1442, "\u00e6\u00bb": 1443, "ement": 1444, "ike": 1445, "\u0120ph": 1446, "\u00d8\u00b9": 1447, "\u00e8\u00a5": 1448, "\u0120ass": 1449, "\u00e7\u00ba\u00bf": 1450, "\u00e6\u00b0\u0136": 1451, "\u00e6\u00b2\u00bb": 1452, "\u00d0\u00be\u00d0\u00b6": 1453, "\u0120}\u010a\u010a": 1454, "\u00e6\u0137\u012a": 1455, "\u00e8\u012b\u00b2": 1456, "\u00d0\u00be\u00d1\u0123\u00d1\u0124": 1457, "\u00e6\u00b2\u00a1\u00e6\u013e\u012b": 1458, "\u0120when": 1459, "\u00e7\u00a4\u00ba": 1460, "?\u010a": 1461, "\u0120It": 1462, "\u00ef\u00bc\u0123": 1463, "\u00e4\u00b8\u0143\u00e5\u013d\u00bd": 1464, "\u00e8\u00b0\u0125": 1465, "\u00e8\u00a5\u00bf": 1466, "\u00e8\u00bf\u0132": 1467, "\u00d0\u00be\u00d0\u00ba": 1468, "\u00d0\u00b8\u00d0\u00bd": 1469, "but": 1470, "\u0120cons": 1471, "\u00d0\u00b5\u00d0\u00b9": 1472, "\u0120pos": 1473, "\u00e4\u00b9\u00a6": 1474, "\u00d1\u0123\u00d1\u0124\u00d0\u00b2": 1475, "\u0120die": 1476, "\u0120them": 1477, "\u0120\u00d8\u00a8": 1478, "\u00e6\u00a8": 1479, ";\u010d\u010a": 1480, "\u0120add": 1481, "irst": 1482, "\u00e5\u0127\u00b7": 1483, "\u0120some": 1484, "oint": 1485, "\u00e5\u00b8\u012a": 1486, "\u0120ent": 1487, "\u00e9\u0122\u012b": 1488, "ten": 1489, "\u0120were": 1490, "\u00e9\u00bb": 1491, "\u00e8\u0122\u0123": 1492, "\u00e6\u0136\u00b6": 1493, "Name": 1494, "ric": 1495, "\u0120his": 1496, "co": 1497, "\u00e2\u0122\u00a6": 1498, "\u0120may": 1499, "\u00e9\u00a9": 1500, "\u00e8\u013b": 1501, ");\u010a\u010a": 1502, "mer": 1503, "\u00e5\u012a\u00ab": 1504, "\u00e6\u012e\u0123": 1505, "\u0120my": 1506, "\u00d0\u00ba\u00d0\u00b8": 1507, "_s": 1508, "\u00e8\u00bd\u00a6": 1509, "\u0120bu": 1510, "\u0120year": 1511, "\u00e5\u0131\u0139": 1512, "\u00e8\u0122\u0125": 1513, "\u0120there": 1514, "\u00e9\u00a1\u00b9": 1515, "col": 1516, "\u00c3\u00a7": 1517, "vent": 1518, "\u0120\u00d0\u00bb": 1519, "round": 1520, "\u00e5\u013b": 1521, "eb": 1522, "oy": 1523, "\u0120prov": 1524, "ian": 1525, "\u0120its": 1526, "\u0120need": 1527, "\u00e8\u00ae\u00a4": 1528, "\u00d0\u00b0\u00d1\u0122": 1529, "\u0120\u00d0\u00be\u00d1\u0124": 1530, "eng": 1531, "\u0120mod": 1532, "``": 1533, "\u00e4\u00b9\u012b": 1534, "ble": 1535, "Con": 1536, "\u00e5\u00b0\u0133": 1537, "\u00e7\u012c": 1538, "\u0120data": 1539, "\u00e4\u00bc\u0123": 1540, "pon": 1541, "\u00d1\u0126": 1542, "Re": 1543, "\u00e8\u00ae\u00ba": 1544, "fig": 1545, "ish": 1546, "\u0120reg": 1547, "\u00e7\u00bb\u013b": 1548, "\u00e4\u00bb\u00b7": 1549, "\u0120than": 1550, "\u00e5\u012a\u013d": 1551, "ix": 1552, "\u00e9\u0139\u00ae\u00e9\u00a2\u013a": 1553, "\u0120been": 1554, "oid": 1555, "inal": 1556, "\u00e5\u0131\u0138": 1557, "\u0120Pro": 1558, "\u00e6\u0140\u0126": 1559, "tring": 1560, "\u00e7\u013d\u00b4": 1561, "que": 1562, "\u00e6\u0122\u00bb": 1563, "\u00e6\u0142\u00bc": 1564, "\u00e8\u00ae\u00a9": 1565, "\u0120inst": 1566, "\">\u010a": 1567, "\":": 1568, "\u00e7\u0139\u0127": 1569, "Th": 1570, "\u00e8\u00b1": 1571, "wo": 1572, "\u00e9\u0139\u00a8": 1573, "\u0120requ": 1574, "RE": 1575, "pos": 1576, "\u00e6\u00a3": 1577, "\u00e3\u0122\u0122": 1578, "\u00e5\u00a5\u00b9": 1579, "\u00cf\u0125": 1580, "\u0120public": 1581, "\u00cf\u0123": 1582, "\u00d0\u00b0\u00d1\u0124\u00d1\u012e": 1583, "\u0120\u00d1\u012f": 1584, "tern": 1585, "\u00e5\u00b2": 1586, "Pro": 1587, "\u00e5\u0127\u012a": 1588, "\u0120act": 1589, "ah": 1590, "\u00e5\u00a2\u0140": 1591, "\u00e6\u012c\u012c": 1592, "-b": 1593, "\u0120!": 1594, "\u00c5\u0124": 1595, "\u00e8\u0124\u00b2": 1596, "\u00e5\u00bd\u00b1": 1597, "\u00e8\u012e": 1598, "\u00e6\u00b5\u00b7": 1599, "\u00e5\u0127\u00ac\u00e5\u0131\u00b8": 1600, "\u00d0\u00b0\u00d0\u00bc": 1601, "\u00e9\u013b\u00a2": 1602, "\u0120Un": 1603, "ado": 1604, "\u00e4\u00b8\u013e": 1605, "\u00d1\u0124\u00d0\u00b8": 1606, "\u0120err": 1607, "\u00e6\u0136\u00be": 1608, "\u0120dif": 1609, "\u00e8\u00a7\u0123": 1610, "\u00e7\u013e\u0141": 1611, "ale": 1612, "\u00e8\u00be\u0125": 1613, "\u00e5\u00a4\u00b4": 1614, "\u0120fe": 1615, "\u00e8\u0129\u00b3": 1616, "me": 1617, "ied": 1618, "\u0120\u00d9\u012a": 1619, "line": 1620, "\u0120che": 1621, "ST": 1622, "\u00e6\u0136\u00b9": 1623, "]\u010a": 1624, "\u00e8\u012c\u0124": 1625, "\u00e9\u00a3\u0130": 1626, "\u0109\u0109\u0109": 1627, "\u00e5\u013d\u013d": 1628, "ield": 1629, "olog": 1630, "\u0120\u00d1\u0123\u00d1\u0124": 1631, "\u00e2\u0122\u013f\u010a": 1632, "arch": 1633, "its": 1634, "\u0120rec": 1635, "\u0120into": 1636, "\u00e5\u012a\u013b": 1637, "\u00e5\u00b1\u00b1": 1638, "\u0120would": 1639, "\u00e5\u013b\u00a8": 1640, "\u00e5\u00ae\u012e": 1641, "\u0120ac": 1642, "\u00e7\u00a5\u0140": 1643, "\u00e4\u00b8\u0135": 1644, "ty": 1645, "\u00e6\u013f\u00a1": 1646, "\u00e9\u013d\u0128": 1647, "ating": 1648, "\u00e4\u00bc\u0123\u00e4\u00b8\u013c": 1649, "\u0120This": 1650, "add": 1651, "\u0120what": 1652, "atch": 1653, "\u0120\u00d0\u00be\u00d0\u00b1": 1654, "\u00e5\u0131\u0124": 1655, "return": 1656, "\u00e6\u00af\u0131": 1657, ".m": 1658, "\u0120\\": 1659, "let": 1660, "\u00e5\u00ae\u0125": 1661, "old": 1662, "\u0120produ": 1663, "sh": 1664, "AT": 1665, "\u0120att": 1666, "\u0120ra": 1667, "ove": 1668, "\u0120incl": 1669, "\u0120rel": 1670, "fo": 1671, "\u00e5\u0137\u0128": 1672, "\u0120x": 1673, "\u00e5\u00ae\u00b9": 1674, "be": 1675, "\u00e4\u00b8\u0138": 1676, "\u00e2\u0122\u0136": 1677, "\u00e6\u0123\u00af": 1678, "\u0120kn": 1679, "\u00e9\u0122\u0142": 1680, "\u00e7\u00ba\u00a7": 1681, "ern": 1682, "\u00e7\u00a1\u00ae": 1683, "\u0120aut": 1684, "\",\u010a": 1685, "\u00e6\u00ba\u0132": 1686, "igh": 1687, "\u0120off": 1688, "\u0120bl": 1689, "ator": 1690, "\u00e7\u00a9\u00b6": 1691, "\u00e5\u0122\u00bc": 1692, "\u0120how": 1693, "ople": 1694, "\u0120bet": 1695, "\u0120\u00ec": 1696, "ms": 1697, ")\u010a\u010a": 1698, "...": 1699, "\u0120trans": 1700, "\u0120gr": 1701, "\u0120Re": 1702, "\u00e5\u0143\u013a": 1703, "\u0120co": 1704, "\u00c3\u00a3": 1705, "erson": 1706, "EN": 1707, "\u00d0\u00b0\u00d0\u00bd\u00d0\u00b8": 1708, "\u0120num": 1709, "ative": 1710, "ser": 1711, "\u00e8\u00af\u00a5": 1712, "\u00e5\u0141\u0130": 1713, "\u00e8\u00be\u00be": 1714, "\u00e5\u012e\u00bb": 1715, "\u00e8\u0130": 1716, "\u0120under": 1717, "span": 1718, "ien": 1719, "\u00d0\u00b5\u00d0\u00b4": 1720, "ments": 1721, "\u00e7\u00ae\u00a1\u00e7\u0132\u0128": 1722, "\u0120had": 1723, "\u00e5\u0127\u00b1": 1724, "\u00e6\u0122\u013f": 1725, "\u00e6\u0137\u00b4": 1726, "\u00d1\u0122\u00d0\u00b5\u00d0\u00b4": 1727, "urr": 1728, "\u00e8\u00ae\u00b0": 1729, "ource": 1730, "\u00e5\u00b0\u00b1\u00e6\u013a\u00af": 1731, "arn": 1732, "\u00e6\u00a8\u00a1": 1733, "\u00e5\u00bc\u0137": 1734, "\u0120los": 1735, "htt": 1736, "\u00e5\u0127\u012b": 1737, "\u0120stud": 1738, "\u00e4\u00b9\u0142": 1739, "app": 1740, "\u00e8\u00a7\u0124": 1741, "\u0120id": 1742, "();\u010a": 1743, "ices": 1744, "ude": 1745, "ible": 1746, "i\u00c3\u00b3n": 1747, "\u0120self": 1748, "\u00e8\u00af\u0123": 1749, "pport": 1750, "\u00e5\u012f\u0139": 1751, "\u0120av": 1752, "\u0120name": 1753, "\u00e5\u0131\u012f": 1754, "\u00e4\u00bb\u0122": 1755, "cont": 1756, "\u00e8\u00af\u0128": 1757, "ervice": 1758, "ities": 1759, "\u00e5\u0131\u012a": 1760, "\u00d0\u00b5\u00d0\u00bb\u00d1\u012e": 1761, "\u00e6\u00b3\u00a8": 1762, "fter": 1763, "\u00e8\u00bd\u00ac": 1764, "\u0120\u00d0\u00bf\u00d0\u00be": 1765, "\u0120\u00c3\u0142": 1766, "\u00e9\u013f\u0140": 1767, "ally": 1768, "ner": 1769, "\u00e2\u0122\u013bt": 1770, "\u0120hel": 1771, "\u00e5\u0136": 1772, "itt": 1773, "ause": 1774, "\u00e6\u012b\u0135": 1775, "ins": 1776, "ract": 1777, "\u0120sub": 1778, "/\u010a": 1779, "\u00e6\u0138\u013b": 1780, "\u00e6\u012c\u00a5": 1781, "ank": 1782, "ility": 1783, "\u00d0\u00be\u00d0\u00bb\u00d1\u012e": 1784, "\u00e5\u0128\u012f": 1785, "ml": 1786, ".\u010a\u010a": 1787, "\u00e7\u0130\u00af": 1788, "\u00e6\u00bc": 1789, "\u00e6\u012b\u012f": 1790, "\u00e5\u0129\u0128": 1791, "uf": 1792, "\u00e6\u0143\u00a5": 1793, "\u00cf\u0122": 1794, "ash": 1795, "\u00e5\u00a5\u00b3": 1796, "\u00d1\u0129\u00d0\u00b5": 1797, "\u00e6\u012a\u013a": 1798, "yn": 1799, "als": 1800, "\u00e3\u0125\u00bc": 1801, "\u0120Z": 1802, "\u00c6\u00b0": 1803, "\u00e7\u00a4\u00be\u00e4\u00bc\u013c": 1804, "AR": 1805, "\u00e4\u00b8\u0129": 1806, "read": 1807, "\u00e7\u0130\u0129": 1808, "\u0120like": 1809, "\u0120\u00c3\u00a9": 1810, "\u00d8\u00a7\u00d8": 1811, "\u00e6\u00b8\u0127": 1812, "ues": 1813, "\u0120Com": 1814, "\u00e8\u00af\u013f": 1815, "\u00e6\u013f\u0125": 1816, "\u00e5\u0126": 1817, "\u0120op": 1818, "\u0120sur": 1819, "\u0120ser": 1820, "ular": 1821, "\u00e5\u00b8\u00a6": 1822, "\u00e3\u0123\u0126": 1823, ".p": 1824, "\u0120back": 1825, "\u00e6\u00b5\u0130": 1826, "\u00e8\u00a8": 1827, "ox": 1828, "\u00e5\u0143\u0139": 1829, "reat": 1830, "\u0120inv": 1831, "\u0120med": 1832, "\u0120only": 1833, "\u00d9\u0124": 1834, "\u00e7\u0127": 1835, "\u0120people": 1836, "very": 1837, "\u00d0\u00be\u00d0\u00b7": 1838, "\u0120det": 1839, "\u00e5\u00a4\u012f": 1840, "\u0120`": 1841, "\u00e5\u012e\u0127": 1842, "\u0120inform": 1843, "\u0120\u00d0\u0134": 1844, "\u00e8\u00af\u0143": 1845, "\u00e7\u00bd\u00ae": 1846, "\u00e8\u0123\u0136": 1847, "ics": 1848, "\u00e5\u00a4\u0129": 1849, "ww": 1850, "\u0120\u00d0\u00b5": 1851, "\u00e7\u00a9\u00ba": 1852, "\u00e5\u012c\u0141": 1853, "\u0120just": 1854, "\u00e7\u0142\u0136\u00e7\u00a9\u00b6": 1855, "\u00c2\u00b7": 1856, "\u00e4\u00bb\u0122\u00e4\u00b9\u012a": 1857, "\u00e4\u00bd\u0137": 1858, "\u00e6\u0142\u00a1": 1859, "\u0120pol": 1860, "\u00d9\u0123": 1861, "ages": 1862, "ond": 1863, "\u00e7\u00b4\u0142": 1864, "ault": 1865, "ts": 1866, "\u00e6\u0139\u00b6\u00e9\u0139\u00b4": 1867, "Id": 1868, "ton": 1869, "\u0120er": 1870, "\u00c3\u00aa": 1871, "data": 1872, "\u0120\u00d0\u0141": 1873, "\u00e6\u0122\u0123": 1874, "----------------": 1875, "ren": 1876, "\u00d1\u0122\u00d0\u00b8": 1877, "\u00e6\u0141\u00a5": 1878, "ym": 1879, "\u0120==": 1880, "\u0120\u0120\u0120\u0120\u0120\u0120\u0120\u0120\u0120\u0120\u0120\u0120\u0120\u0120\u0120\u0120\u0120\u0120\u0120\u0120\u0120\u0120\u0120\u0120\u0120\u0120\u0120\u0120\u0120\u0120\u0120\u0120\u0120\u0120\u0120\u0120\u0120\u0120\u0120\u0120\u0120\u0120\u0120\u0120\u0120\u0120\u0120\u0120\u0120\u0120\u0120\u0120\u0120\u0120\u0120\u0120\u0120\u0120\u0120\u0120\u0120\u0120\u0120\u0120": 1881, "\u00e5\u012e\u0139": 1882, "\u00e7\u00b2\u00be": 1883, "OR": 1884, "\u0120make": 1885, "\u00e6\u0136\u00af": 1886, "\u00e8\u0127": 1887, "\u00e9\u00aa\u012e": 1888, "ax": 1889, "********": 1890, "Ex": 1891, "ray": 1892, "\u0120sol": 1893, "\u0120should": 1894, "ze": 1895, "ruct": 1896, "\u00e7\u0137\u012e": 1897, "\u00e5\u0128\u00b3": 1898, "rough": 1899, "\u00e9\u0122\u013c\u00e8\u00bf\u0129": 1900, "\u0120min": 1901, "\u00e4\u00bb\u0138\u00e4\u00bb\u00ac": 1902, "\u00e8\u00a7\u0128": 1903, "\u00e7\u013b\u00bd": 1904, "\u00e5\u012f\u00b3": 1905, ".c": 1906, "\u00cf\u0124": 1907, "roup": 1908, "\u0120first": 1909, "\u0120sc": 1910, "\u0120function": 1911, "\u0120her": 1912, "\u00e4\u00be\u012d": 1913, "\u00e7\u012d": 1914, "\u0120these": 1915, "aw": 1916, "this": 1917, "ider": 1918, "\u00e6\u0142\u00b9": 1919, "Type": 1920, "\u00d0\u00b5\u00d0\u00ba": 1921, "\u0120spec": 1922, "\u00e5\u00bf\u0127": 1923, "\u0120Wh": 1924, "\u00e9\u0141": 1925, "\u0120\u00d0\u00bf\u00d1\u0122\u00d0\u00b8": 1926, "\u0120para": 1927, "ref": 1928, "\u00ce\u00b7": 1929, "val": 1930, "\u0120--": 1931, "\u0120ein": 1932, "\u0120\u00d0\u00b2\u00d1\u012d": 1933, "log": 1934, "\u00e7\u00ae\u0139": 1935, "\u0120stat": 1936, "ures": 1937, "\u00e4\u00be\u013d": 1938, "ful": 1939, "\u0120eff": 1940, "\u0120then": 1941, "-t": 1942, "rr": 1943, "\u0120pres": 1944, "\u0120most": 1945, "\u00e7\u0130\u012d": 1946, "gram": 1947, "ID": 1948, "dd": 1949, "\u00e5\u00a7\u012d": 1950, ".S": 1951, "\u00e5\u0126\u00bf": 1952, "\u0120_": 1953, "js": 1954, "\u00cf\u0127": 1955, "\u00d0\u00b5\u00d0\u00bd\u00d0\u00b8\u00d1\u0131": 1956, "\u0120rem": 1957, "\u00e6\u00b7\u00b1": 1958, "\u0120str": 1959, "velop": 1960, "gan": 1961, "\u00e7\u00bb\u0131\u00e6\u00b5\u0130": 1962, "\u00e8\u00bf\u013b\u00e4\u00b8\u00aa": 1963, "\u0120test": 1964, "\u00e6\u013e\u012f\u00e5\u012c\u00a1": 1965, "\u00e6\u0130\u00a8": 1966, "\u0120val": 1967, "\u00e3\u0123\u00ab": 1968, "\u00c4\u013b": 1969, "td": 1970, "\u00d0\u00b8\u00d0\u00bb": 1971, "ody": 1972, "ational": 1973, "set": 1974, "\u0120result": 1975, "min": 1976, "yp": 1977, "ader": 1978, "_f": 1979, "\u00d0\u00b0\u00d0\u00b2": 1980, "\u00e4\u00bd\u00bf\u00e7\u0136\u00a8": 1981, "alse": 1982, "any": 1983, "Com": 1984, "\u00e8\u00af\u0137": 1985, "\u00e6\u013a\u00be": 1986, "oun": 1987, "oth": 1988, "ocal": 1989, "ribut": 1990, "\u0120>": 1991, "\u00da\u00a9": 1992, ".get": 1993, "\u00e3\u0123\u00a7": 1994, "\u00e6\u00a2": 1995, "\u00e6\u012c\u0122\u00e6\u013e\u00af": 1996, "\u0120\u00d0\u00a1": 1997, "ict": 1998, "\u00e7\u00aa": 1999, "\u00e6\u0138\u00bd": 2000, "\u00e8\u00a1\u0122": 2001, "\u00c3\u00a3o": 2002, "Ch": 2003, "\u00e5\u0128\u00b5": 2004, "\u0120type": 2005, "\u0120We": 2006, "\u00e5\u0128\u013d": 2007, "\u00e5\u00b9\u00bf": 2008, "ces": 2009, "\u00e8\u00bf\u0133": 2010, "\u00e6\u012a\u00b7": 2011, "\u00e5\u0131\u00b0": 2012, "\u00c5\u0141": 2013, "\u0120form": 2014, "))": 2015, "irect": 2016, "\u0120import": 2017, "\u0120said": 2018, "\u00e4\u00bd\u0130": 2019, "\u0120les": 2020, "\u0109if": 2021, "\u00e7\u00b3\u00bb\u00e7\u00bb\u0141": 2022, "\u00c4\u0125": 2023, "aut": 2024, "\u00e3\u0123\u0139": 2025, "\u00e5\u00a6\u0124\u00e6\u0140\u013e": 2026, "\u00e6\u00b6\u012a": 2027, "red": 2028, "chn": 2029, "\u00e8\u00b1\u00a1": 2030, "\u0120value": 2031, "\u00d0\u00bc\u00d0\u00b8": 2032, "\u00e9\u00a2\u0128": 2033, "\u00e4\u00ba\u0136": 2034, "LE": 2035, "\u0120\u0120\u0120\u0120\u0120\u0120": 2036, "\u00e5\u0125": 2037, "\u0120An": 2038, "\u00e9\u013e\u0122\u00e8\u00a6\u0123": 2039, "\u00e5\u0131\u00b7": 2040, "\u00e6\u0138\u0143": 2041, "\u00c3\u00a8": 2042, "els": 2043, "\u0120lo": 2044, "\u00e8\u0132\u00a5": 2045, "Res": 2046, "\u0120ed": 2047, "ense": 2048, "urrent": 2049, "\u0120through": 2050, "\u00d0\u00be\u00d0\u00bf": 2051, "ased": 2052, "\u0120He": 2053, "essage": 2054, "\u00e8\u00b4\u00b9": 2055, "\u00e6\u013a\u0135": 2056, "\u00c4\u0127": 2057, "wn": 2058, "\u00e6\u00ae\u00b5": 2059, "\u0120let": 2060, "\u0109return": 2061, "\u00e5\u00a2\u0125": 2062, "\u00e7\u012c\u00b6": 2063, "cript": 2064, "\u00e5\u0128\u013e": 2065, "work": 2066, "\u00c3\u00a5": 2067, "go": 2068, "\u0120help": 2069, "\u00e5\u0129\u0142": 2070, "alth": 2071, "\u00e5\u00b8\u0125": 2072, "\u00e5\u0143\u00a6\u00e7\u0136\u0141": 2073, "\u00d0\u00bd\u00d1\u012d\u00d1\u0127": 2074, "ower": 2075, "\u00e5\u0133\u00bd": 2076, "\u00d8\u00a7\u00d9\u0128": 2077, "att": 2078, "uc": 2079, "ument": 2080, "\u00e9\u00a5": 2081, "\u00e4\u00bb\u012c": 2082, "aj": 2083, "ger": 2084, "\u00e6\u00a1\u012a": 2085, "\u00d0\u00b8\u00d1\u0124\u00d1\u012e": 2086, "\u00e9\u0127\u012f": 2087, "\u00e4\u00bc\u013a": 2088, "It": 2089, "\u0120ext": 2090, "def": 2091, "\u00e5\u0135\u012f": 2092, "\u0120ver": 2093, "\u00e4\u00b8\u0136": 2094, "\u00e9\u013c\u00be": 2095, "\u0120person": 2096, "\u00e8\u00a3\u0127": 2097, "ente": 2098, "\u00e9\u013b\u0127": 2099, "ache": 2100, "\u00e9\u013a\u00b2": 2101, "\u0120por": 2102, "\u00e7\u00ab\u0142": 2103, "\u00e5\u00bc\u0142": 2104, "IT": 2105, "idth": 2106, "\u0120two": 2107, "AN": 2108, ".t": 2109, "\u00e5\u0133\u00a8": 2110, "\u00e6\u00b5\u012d": 2111, "\u00e7\u00bb\u0128": 2112, "\u0120du": 2113, "\u0120Ar": 2114, "\u00e6\u0140\u0123": 2115, "\u00e5\u00bf\u00ab": 2116, "\u00e6\u012c\u00a4": 2117, "yle": 2118, "AL": 2119, "\u00e6\u012c\u0137": 2120, "ke": 2121, "\u00e8\u00a8\u0122": 2122, "\u0120know": 2123, "\u0120string": 2124, "\u00e6\u0130\u00a7": 2125, "ethod": 2126, "ivers": 2127, "ij": 2128, "amp": 2129, "\u00d0\u00bd\u00d1\u012d\u00d0\u00b5": 2130, "\u00e3\u0123\u013b": 2131, "unc": 2132, "!\u010a": 2133, "\u0120ind": 2134, "\u00e5\u012c\u0140": 2135, "\u00e5\u0127\u00bb": 2136, "\u0120such": 2137, "\u00e5\u00b9\u00b2": 2138, "_m": 2139, "-m": 2140, "ler": 2141, "\u0120where": 2142, "\u00d0\u00b0\u00d0\u00bb\u00d1\u012e": 2143, "\u00e4\u00b8\u0143\u00e7\u013c\u0126": 2144, "ough": 2145, "\u0120\u0120\u0120\u0120\u0120\u0120\u0120\u0120\u0120\u0120\u0120\u0120\u0120\u0120\u0120\u0120\u0120\u0120\u0120\u0120\u0120\u0120\u0120": 2146, "\u00e9\u0129\u0129": 2147, "\u00e5\u00b1\u0124": 2148, "\u0120\u00c2\u00ab": 2149, "_p": 2150, "fore": 2151, "\u00d0\u00b5\u00d1\u0123": 2152, "\u00e9\u013b\u0132": 2153, "view": 2154, "\u0120wor": 2155, "ood": 2156, "cent": 2157, "ada": 2158, "rol": 2159, "\u00e7\u012a\u00b1": 2160, "ily": 2161, "SE": 2162, "\u00d0\u00b4\u00d0\u00b0": 2163, "\u00e5\u0131\u00af\u00e8\u0125\u00bd": 2164, "ait": 2165, "\u00c3\u00a9s": 2166, "\u00c2\u00bb": 2167, "\u0120den": 2168, "\u00e5\u00b1\u0122": 2169, "\u0120exper": 2170, "\u00d1\u0130\u00d1\u0124": 2171, "\u0120da": 2172, "\u0120Al": 2173, "\u0120true": 2174, "\u00e7\u00a7\u00b0": 2175, "\u00d8\u00a7\u00d9\u0126": 2176, "\u00e5\u00a4\u00aa": 2177, "\u00e9\u0122\u0141": 2178, "\u00e7\u013e\u0123": 2179, "self": 2180, "\u0120differ": 2181, "../": 2182, "\u0120Se": 2183, "\u0120sch": 2184, "ctions": 2185, "\u0120system": 2186, "date": 2187, "\u0120well": 2188, "itle": 2189, "\u00d1\u0123\u00d1\u0124\u00d0\u00b8": 2190, "-f": 2191, "of": 2192, "\u0120*/\u010a": 2193, "\u00e8\u012c\u00b1": 2194, "\u00e8\u00b6\u012c": 2195, "\u0120De": 2196, "\u0120\u00d1\u0122\u00d0\u00b5": 2197, "ask": 2198, "\u00e4\u00b8\u00bb\u00e8\u00a6\u0123": 2199, "\u00e8\u00ae\u00ae": 2200, "\u0120sim": 2201, "\u00d0\u00bd\u00d0\u00be\u00d0\u00b9": 2202, "\u00e9\u013b\u00a4": 2203, "\u0120\u0120\u0120\u0120\u0120\u0120\u0120\u0120\u0120\u0120\u0120\u0120\u0120": 2204, "\u0120start": 2205, "ica": 2206, "urs": 2207, "\u0120fol": 2208, "\u00e6\u0133": 2209, "\u0120used": 2210, "\u0120Q": 2211, "\u00d9\u0125": 2212, ".f": 2213, "\u00e5\u0127\u013c": 2214, "iness": 2215, "\u00e8\u00b5\u00b0": 2216, "ets": 2217, "ersion": 2218, "\u00e5\u013d\u00bd\u00e5\u00ae\u00b6": 2219, "ines": 2220, "\u00e6\u0137\u013b\u00e8\u0124\u00b2": 2221, "\u00d0\u00b8\u00d1\u0127": 2222, "\u0120si": 2223, "\u0120resp": 2224, "\u00d8\u00b4": 2225, "\u00e3\u0123\u00a6": 2226, "\u00e6\u0138\u00b9\u00e6\u00b3\u0137": 2227, "\u00e7\u012b\u0129": 2228, "\u0120sm": 2229, "\u0120bec": 2230, "\u00e7\u0131": 2231, "\u0120\u00d0\u013c": 2232, "\u00e5\u0143\u00a9": 2233, "\u00e5\u0130\u0128": 2234, "\u00d0\u00bd\u00d0\u00be\u00d0\u00b3\u00d0\u00be": 2235, "br": 2236, "\u0120\u00d0\u00b8\u00d0\u00b7": 2237, "List": 2238, "\u00e5\u0125\u0131": 2239, "\u00e5\u0130\u012d": 2240, "\u0120cor": 2241, "',\u010a": 2242, "\u00e6\u013f\u0133": 2243, "ames": 2244, "\u00c3\u00bcr": 2245, "\u00e5\u013d\u0142\u00e4\u00b8\u00ba": 2246, "ional": 2247, "ample": 2248, "\u0120right": 2249, "\u00e6\u013e\u00aa": 2250, "\u00e9\u00a3\u0141": 2251, "\u00e3\u0124\u012d": 2252, "\u0120many": 2253, "\u00e9\u013a\u0141": 2254, "\u0120don": 2255, "ven": 2256, "\u0120else": 2257, "\u00e5\u0122\u013b": 2258, "\u0120mon": 2259, "\u00d8\u0143": 2260, "\u0120car": 2261, "()\u010a": 2262, "den": 2263, "_c": 2264, "\u00e4\u00bf\u00a1\u00e6\u0123\u00af": 2265, "\u00e3\u0124\u0134": 2266, "\u00d8\u00a7\u00d8\u00b1": 2267, "\u00e6\u00a3\u0122": 2268, "\u00e7\u00a7\u00af": 2269, "\u00e7\u013c\u0126\u00e4\u00ba\u00ba": 2270, "uss": 2271, "\u00e8\u0129\u00b4": 2272, "\u00d1\u0122\u00d0\u00be\u00d0\u00b2": 2273, "\u0120dur": 2274, "\u0120want": 2275, "bl": 2276, "\u00c5\u00bc": 2277, "\u00e3\u0123\u00a8": 2278, "\u00e8\u0123\u012e": 2279, "cept": 2280, "\u0120fil": 2281, "ature": 2282, "\u0120dem": 2283, "ule": 2284, "========": 2285, "dex": 2286, "ave": 2287, "\u0120il": 2288, "string": 2289, "\u00e7\u0138\u0139": 2290, "\u0120long": 2291, "\u00e8\u012f\u00af": 2292, "\u0120dec": 2293, "\u0120could": 2294, "Data": 2295, "\u00e9\u00a9\u00ac": 2296, "\u00e7\u00bb\u00b4": 2297, "\u00e4\u00be\u00bf": 2298, "\u0120sk": 2299, "\u00e6\u0127": 2300, "\u00e8\u00a7\u012b": 2301, "\u00d0\u00b3\u00d0\u00be": 2302, "ning": 2303, "const": 2304, "\u00e6\u00b8\u00b8": 2305, "\u00e5\u012a\u0139": 2306, "\u00e5\u0131\u00b2": 2307, "Cont": 2308, "String": 2309, "\u0120\u00d1\u0126": 2310, "ina": 2311, "\u0120list": 2312, "\u0120:=": 2313, "\u00e4\u00b8\u012f\u00e6\u013a\u00af": 2314, "\u00e7\u00a6\u00bb": 2315, "abel": 2316, "\u00e7\u0125\u0143": 2317, "\u0120gener": 2318, "\u00e7\u00bb\u0143": 2319, "\u00e5\u012d": 2320, "\u0120\u00e2\u0122\u0136": 2321, "\u00e5\u013d\u00a2": 2322, "\u0120una": 2323, "\u00e8\u00be\u00b9": 2324, "ows": 2325, "\u0120\u00d8\u00aa": 2326, "\u00e4\u00b8\u012f\u00e5\u0132\u012e": 2327, "Wh": 2328, "\u00e8\u0131": 2329, "\u0120dist": 2330, "ife": 2331, "\u0120\u00cf\u0126": 2332, "\u0120information": 2333, "\u0120every": 2334, "ole": 2335, "\u00d0\u00bd\u00d1\u012d\u00d0\u00b9": 2336, "ength": 2337, "hr": 2338, "\u00e5\u0133\u012c": 2339, "\u00d1\u0124\u00d1\u012e": 2340, "\u00e5\u012c\u00a9": 2341, "\u00e6\u0137\u00b0\u00e6\u012f\u00ae": 2342, "ward": 2343, "\u0120she": 2344, "\u00e5\u00be\u00b7": 2345, "\u00e8\u012e\u0125": 2346, "i\u00e1\u00bb": 2347, "\u00e6\u0125\u0127\u00e5\u0128\u00b5": 2348, "ious": 2349, "str": 2350, "ced": 2351, "\u0120bus": 2352, "\u00e5\u0127\u012d": 2353, "\u0120find": 2354, "\u00e7\u0136\u0141\u00e6\u00b4\u00bb": 2355, "\u0120met": 2356, "\u0120develop": 2357, "\u00e5\u0142": 2358, "\u0120process": 2359, "\u00e6\u012e\u012b": 2360, "key": 2361, "\u00ce\u00bb": 2362, "\u00e6\u012a\u00bf": 2363, "ired": 2364, "\u0120fl": 2365, "\u00e7\u0127\u00a7": 2366, "\u00e6\u00b4\u00bb\u00e5\u012c\u00a8": 2367, "\u00e5\u0141\u0141": 2368, "\u0120ap": 2369, "\u00d8\u00b2": 2370, "\u0120,": 2371, "\u00c3\u00b4": 2372, "lement": 2373, "\u0120If": 2374, "\u00e5\u00ae\u00a2": 2375, "'t": 2376, "\u00e5\u00a3\u00b0": 2377, "\u00e5\u00a4\u00b1": 2378, "\u00e4\u00b9\u0132": 2379, "\u00e7\u00a2": 2380, "\u00e5\u00b8\u0124\u00e5\u013e\u00ba": 2381, "\u00e6\u0134": 2382, "\u00d0\u00b8\u00d1\u0123": 2383, "quest": 2384, "ting": 2385, ".d": 2386, "ux": 2387, "\u00e5\u012a\u0129": 2388, "\u00e8\u00b6\u00b3": 2389, "ute": 2390, "\u00ef\u00bc\u012e\u00e4\u00bd\u0128": 2391, "\u0120You": 2392, "oci": 2393, "\u00e9\u013c\u0131": 2394, "\u00e6\u0138\u00af": 2395, "\u0120\u00d0\u00b6": 2396, "\u0120na": 2397, "ams": 2398, "\u00e5\u00a7\u0136": 2399, "_d": 2400, "\u00e8\u00af\u0126": 2401, "\u00e6\u0140\u0139": 2402, "\u00e7\u00bb\u0129": 2403, "\u00e9\u0122\u0124": 2404, "\u00e5\u012f\u0130": 2405, "\u00e5\u012a\u0134": 2406, "\u00e8\u00bf\u0140": 2407, "\u0120read": 2408, "\u00e7\u00ba\u00a6": 2409, "cond": 2410, "\u00e9\u0129\u012f\u00e8\u00a6\u0123": 2411, "\u0120way": 2412, "\u0120tem": 2413, "\u00e8\u00af\u00be": 2414, "\u00d0\u00b5\u00d0\u00bd\u00d0\u00b8\u00d0\u00b5": 2415, "\u0120look": 2416, "\u00e5\u0130\u00bf": 2417, "\u00ef\u00bc\u012e\u00e8\u00bf\u013b": 2418, "\u00ef\u00bc\u012e\u00e5\u013e\u00a8": 2419, "\u0120som": 2420, "-d": 2421, "\u0120hand": 2422, "order": 2423, "\u0120\u00d8\u00af": 2424, "raph": 2425, ".l": 2426, "\u0120after": 2427, "air": 2428, "\u00e3\u0125\u00b3": 2429, "\u00e6\u013c": 2430, "\u0120ins": 2431, "gy": 2432, "rror": 2433, "\u0120bel": 2434, "\u0120number": 2435, "\u0120cal": 2436, "\u00e3\u0123\u012e": 2437, "ined": 2438, "\u0120vis": 2439, "\u0120sign": 2440, "ivate": 2441, "rop": 2442, "ify": 2443, "\u00d0\u00b8\u00d0\u00b5": 2444, "\u00e5\u00b1\u0140": 2445, "\u00e9\u00a6\u0138": 2446, "\u00e6\u00b9": 2447, "\u00e3\u0123\u0141": 2448, "\u00e5\u013f\u0129": 2449, "new": 2450, "play": 2451, "\u00e7\u012e": 2452, "\u00e5\u00bd\u00b1\u00e5\u0135\u012f": 2453, "\u0120includ": 2454, "\u00e3\u0123\u00af": 2455, "\u0120cent": 2456, "To": 2457, "\u0120var": 2458, "\u0120exp": 2459, "ccess": 2460, "\u0120years": 2461, "ism": 2462, "\u00e5\u00a8": 2463, "\u0120mark": 2464, "\u00e3\u0123\u00aa": 2465, "\u00e9\u00a2\u0126": 2466, "\u00e6\u0140\u0132": 2467, "nh": 2468, "\u0120high": 2469, "\u00e4\u00bf\u00ae": 2470, "aking": 2471, "icht": 2472, "\u00e7\u013e\u00bc": 2473, "\u00d1\u0125\u00d0\u00b4": 2474, "\u0120fr": 2475, "\u00e7\u0143\u0138": 2476, "\u00e7\u013c\u0126\u00e4\u00b8\u0122": 2477, "\u00e6\u0130\u0134": 2478, "\u0120%": 2479, "\u00d8\u00ac": 2480, "\u00d0\u00b5\u00d0\u00bd\u00d1\u0124": 2481, "\u00c3\u00a1s": 2482, "ott": 2483, "\u00e5\u013e\u0141": 2484, "\u00c6\u00b0\u00e1\u00bb": 2485, "\u0120program": 2486, "\u00ce\u00ba": 2487, "\u00e5\u012f\u0129": 2488, "\u0120ve": 2489, "\u0120even": 2490, "ES": 2491, "\u0120nh": 2492, "\u00c3\u00ba": 2493, "\u00e5\u00b7\u0140": 2494, "\u00e8\u00ae\u00b8": 2495, "\u0120art": 2496, "kt": 2497, "la": 2498, "\u00e3\u0123\u00be": 2499, ".h": 2500, "\u00e6\u0138\u00b9\u00e9\u013f\u00a2": 2501, "\u0120las": 2502, "ited": 2503, "\u00e6\u00bb\u00a1": 2504, "\u00e7\u0141\u00b3": 2505, "\u0120much": 2506, "iver": 2507, "\u0120mem": 2508, "\u00e5\u0143\u00a6\u00e4\u00b9\u0142": 2509, "\u0120because": 2510, "\u00e8\u00b4\u00a3": 2511, "\u0120prof": 2512, "\u0120Con": 2513, "ween": 2514, "\")": 2515, "\u0120\u00d0\u013f": 2516, "\u00e8\u00af\u00b7": 2517, "hor": 2518, "_b": 2519, "class": 2520, "\u00d0\u00b5\u00d1\u0122\u00d0\u00b5": 2521, "ants": 2522, "\u00e5\u00a1": 2523, "no": 2524, "\u0120\u00d1\u0129\u00d1\u0124\u00d0\u00be": 2525, "\u00e7\u013b\u00be": 2526, "\u00e5\u00ba\u013e": 2527, "\u00e5\u0128\u013b": 2528, "\u00e8\u0133": 2529, "other": 2530, "\u00e8\u0130\u00b7": 2531, "\u00ce\u00bc": 2532, "ustom": 2533, "\u00d0\u00b8\u00d0\u00b7": 2534, "\u0120vari": 2535, "\u00ce\u00af": 2536, "\u0120serv": 2537, "\u0120\u00eb": 2538, "\u00e5\u012c\u00bf": 2539, "Ar": 2540, "ized": 2541, "bs": 2542, "ars": 2543, "\u00e4\u00ba\u00ba\u00e7\u013c\u0126": 2544, "\u00e5\u00be\u0122": 2545, "\u00e9\u0141\u00b3": 2546, "right": 2547, "CT": 2548, "org": 2549, "pre": 2550, "_l": 2551, "\u0120real": 2552, "\u0120very": 2553, "////": 2554, "ote": 2555, "\u0120now": 2556, "\u0120gu": 2557, "\u0120see": 2558, "\u00e6\u0138\u0129\u00e5\u012e\u0138": 2559, "\u00e4\u00bc\u0139": 2560, "ives": 2561, "\u00d0\u00b8\u00d0\u00b9": 2562, "\u00e7\u013d\u012c": 2563, "\u0120does": 2564, "\u00ec\u013f": 2565, "https": 2566, "\u00e6\u00a5": 2567, "ender": 2568, "AS": 2569, "\u00d1\u0125\u00d1\u0130": 2570, "\u00e5\u0143\u00a9\u00e5\u0143\u0132": 2571, "\u00c3\u00a2": 2572, "\u00e7\u0132\u0125": 2573, "net": 2574, "\u00e9\u00be": 2575, "item": 2576, "ital": 2577, "ai": 2578, "\u00d1\u0123\u00d1\u0124\u00d1\u012e": 2579, "\u0120file": 2580, "\u00e5\u00ba\u0131": 2581, "><": 2582, "\u00d0\u00b0\u00d1\u0123": 2583, "fe": 2584, "\u00e6\u0139\u00b6\u00e5\u0122\u013b": 2585, "\u00e8\u00af\u00bb": 2586, "rc": 2587, "\u0120\u00d0\u00b4\u00d0\u00bb\u00d1\u0131": 2588, "\u00e5\u00a3\u00ab": 2589, "\u00e5\u0131\u00a4": 2590, "\u0120char": 2591, "\u0120!=": 2592, "\u00e4\u00bd\u0131": 2593, "\u0120\u00d0\u00bf\u00d0\u00be\u00d0\u00b4": 2594, "\u00e6\u00b1\u0141": 2595, "land": 2596, "\u00e6\u012d\u00a9": 2597, "\u0120\u00d0\u00bf\u00d1\u0122\u00d0\u00be": 2598, "\u00e5\u00b0\u0136": 2599, "](": 2600, "RO": 2601, "\u0120Ex": 2602, "\u00e6\u012b\u0122\u00e4\u00bb\u00a5": 2603, "\u00ef\u00bc\u012e\u00e8\u0122\u012e": 2604, "\u00e8\u00bf\u013b\u00e6\u0142\u00b7": 2605, "_C": 2606, "\u0120\u00d0\u013e": 2607, "\u0120pass": 2608, "ential": 2609, "\u0120follow": 2610, "ution": 2611, "\u00e7\u00be\u00a4": 2612, "\u00d1\u0125\u00d1\u0124": 2613, "\u00e6\u0137\u0127": 2614, "\u00e5\u00b7\u00b2\u00e7\u00bb\u0131": 2615, "\u00e5\u00be\u012d": 2616, "\u0120&&": 2617, "\u0120partic": 2618, "\u0120fin": 2619, "load": 2620, "IC": 2621, "'\u010a": 2622, "\u0120support": 2623, "\u0120case": 2624, "\u0120using": 2625, "\u0120each": 2626, "\u00e7\u00bb\u0126\u00e7\u00bb\u0129": 2627, "\u00e9\u013b\u00a9": 2628, "arget": 2629, "={": 2630, "></": 2631, "AM": 2632, "\u0120Tr": 2633, "\u00e5\u00bb\u00ba\u00e8\u00ae\u00be": 2634, "\u0120child": 2635, "\u0120},\u010a": 2636, "ta": 2637, "\u0120good": 2638, "\u00e5\u013d\u00b4": 2639, "-l": 2640, "hed": 2641, "\u0120po": 2642, "En": 2643, "\u00e4\u00bb\u0127": 2644, "\u00e5\u0132\u012e\u00e6\u0139\u00b6": 2645, "\u0120\u00d1\u0122\u00d0\u00b0\u00d0\u00b7": 2646, "\u0120best": 2647, "aci\u00c3\u00b3n": 2648, "\u00d0\u00a1": 2649, "\u0120bo": 2650, "\u00e8\u00b6\u0127": 2651, "\u00d0\u0141": 2652, "\u00e1\u00ba\u00a1": 2653, "value": 2654, "\u0120pat": 2655, "_id": 2656, "\u0120key": 2657, "\u0120ke": 2658, "\u0120dr": 2659, "\u0120those": 2660, "na": 2661, "ency": 2662, "\u0120run": 2663, "\u00e5\u00ae\u012b\u00e5\u0127\u00a8": 2664, "\u0120aw": 2665, "\u00e6\u013e\u013d": 2666, "\u00d1\u0122\u00d0\u00b0\u00d0\u00b2": 2667, "rem": 2668, "vis": 2669, "\u00e4\u00be\u013f": 2670, "ene": 2671, "search": 2672, "\u00e7\u0136\u0141\u00e4\u00ba\u00a7": 2673, "\u00e5\u012a\u013f": 2674, "roll": 2675, "\u0120between": 2676, "\u00e8\u00a6\u0123\u00e6\u00b1\u0124": 2677, "\u0120Le": 2678, "\u00e8\u00bf\u0129\u00e7\u00a8\u012d": 2679, "\u00e4\u00ba\u00a7\u00e5\u0135\u0123": 2680, "man": 2681, "\u0120false": 2682, "dit": 2683, "${": 2684, "(\u010a": 2685, "\u0120expect": 2686, "\u00e4\u00ba\u012b": 2687, "\u00e8\u0132\u00bd": 2688, "use": 2689, "\u0120And": 2690, "\u00e7\u00ba\u00a2": 2691, "\u00e9\u0122\u012b\u00e6\u012d\u00a9": 2692, "for": 2693, "\u0120fam": 2694, "\u00e1\u00ba\u00bf": 2695, "fl": 2696, "\u00e7\u00ac\u00ac\u00e4\u00b8\u0122": 2697, "\u00ef\u00bc\u012e\u00e4\u00b8\u012f": 2698, "opt": 2699, "\u00e8\u00bf\u013b\u00e4\u00ba\u013d": 2700, "reg": 2701, "\u00e5\u00b7\u00ae": 2702, ",\u00e5\u013e\u00a8": 2703, "\u0120before": 2704, "\u00e9\u00a1\u00b9\u00e7\u013d\u00ae": 2705, "\u00e8\u012d\u00b1": 2706, "arm": 2707, "\u00e9\u0125\u00a8\u00e5\u012a\u0128": 2708, "\u00e6\u0135": 2709, "\u00d0\u00b5\u00d1\u0124\u00d1\u0123\u00d1\u0131": 2710, "lex": 2711, "wh": 2712, ".b": 2713, "\u00ef\u00bc\u013c\u00e2\u0122\u013e": 2714, "\u00e6\u0138\u00b9\u00e5\u00bc\u0131": 2715, "\u00e8\u0124\u00a1": 2716, "util": 2717, "stat": 2718, "ploy": 2719, "\u00e8\u00bf\u013e": 2720, "```": 2721, "\u0120\u00d1\u0123\u00d0\u00b2": 2722, "odel": 2723, "\u00e8\u0140": 2724, "\u00e7\u00bc\u0138": 2725, "\u0120\u00d0\u00b1\u00d1\u012d": 2726, "\u00d1\u0123\u00d0\u00bf": 2727, "\u0120X": 2728, "\u0120product": 2729, "\u00e7\u00ae\u0122": 2730, "\u00e6\u00b8\u00a9": 2731, "\u0120void": 2732, "inter": 2733, "cho": 2734, "\u00d0\u00be\u00d1\u0129": 2735, "\u00e7\u00ab\u013b": 2736, "\u00e6\u0132": 2737, "Error": 2738, "\u0120down": 2739, "\u0120own": 2740, "ually": 2741, "\u00e8\u0125\u00bd\u00e5\u012c\u013d": 2742, "ever": 2743, "\u0120\u00d9\u0123": 2744, "\u00d1\u0125\u00d1\u0129": 2745, "\u00e5\u012f\u0131": 2746, "\u0120non": 2747, "\u0120commun": 2748, "\u0120br": 2749, "comm": 2750, "over": 2751, "\u00c5\u013d": 2752, "\u00e9\u013f\u0134": 2753, "\u00e6\u00bc\u0136": 2754, "\u00e5\u00bf\u0139": 2755, "Col": 2756, "\u00e5\u00a4\u0141": 2757, "hip": 2758, "ique": 2759, "\u00e6\u013f\u0132": 2760, "\u0120quest": 2761, "\u00d0\u00b8\u00d0\u00b2": 2762, "\u00e8\u00ae\u00be\u00e8\u00ae\u00a1": 2763, "\u00e4\u00bb\u00a5\u00e5\u0131\u012c": 2764, "test": 2765, "\u00e8\u00a7\u0134": 2766, "\u00d0\u00b0\u00d0\u00b7": 2767, "za": 2768, "\u00e5\u012f\u00b4": 2769, "zy": 2770, "\u0120For": 2771, "alk": 2772, "ground": 2773, "\u00e4\u00bd\u013e\u00e4\u00b8\u00ba": 2774, "\u0120pour": 2775, "opy": 2776, "erc": 2777, "\u0120gl": 2778, "\u00d0\u00ba\u00d0\u00be": 2779, "\u00c4\u013d": 2780, "\u0120post": 2781, "\u0120point": 2782, "\u0120main": 2783, "\u0120different": 2784, "user": 2785, "url": 2786, "\u00e8\u00be\u0135": 2787, "\u0120being": 2788, "uild": 2789, "DE": 2790, "\u0120sin": 2791, "\u00e5\u00bc\u0122\u00e5\u00a7\u012d": 2792, "\u00e5\u012a\u0128\u00e6\u0140\u0132": 2793, "var": 2794, "\u00d1\u0123\u00d0\u00b5": 2795, "\u00e7\u00b1\u00b3": 2796, "\u0120)": 2797, "\u0120\u00d0\u0140": 2798, "Par": 2799, "\u00e7\u012b\u012a": 2800, "ically": 2801, "\u0120poss": 2802, "ior": 2803, "\u0120Sch": 2804, "\u00e5\u00be\u00ae": 2805, "imes": 2806, "\u00e6\u0131\u0132\u00e4\u00be\u013d": 2807, "gg": 2808, "\u00e7\u00bb\u012a": 2809, "\u0120business": 2810, "\u00e5\u00bd\u0137": 2811, "\u0120rep": 2812, "\u00e8\u012b\u00ba": 2813, "\u0120opt": 2814, "\u0120text": 2815, "\u0120techn": 2816, "\u00e6\u0143\u00bb": 2817, "\u00e6\u0139\u0131": 2818, "########": 2819, "\u0120care": 2820, "ology": 2821, "\u0120incre": 2822, "\u0120take": 2823, "\u00e7\u013d\u0133": 2824, "\u00e7\u0136\u00bb": 2825, "\u0120organ": 2826, "\u0120while": 2827, "\u00d0\u0140": 2828, "\u00e9\u013b\u012f": 2829, "\u00e6\u013b\u00af": 2830, "\u0120provid": 2831, "||": 2832, "\u0120ca": 2833, "\u00d1\u0127\u00d0\u00be\u00d0\u00b4": 2834, "\u00e5\u0131\u012d": 2835, "\u00e5\u00bf\u00b5": 2836, "].": 2837, "\u00e6\u013a\u00af\u00e4\u00b8\u0122": 2838, "ui": 2839, "\u0120mit": 2840, "\u00e4\u00bd\u013e\u00e7\u0136\u00a8": 2841, "\u00e6\u012d\u012b": 2842, "\u00e5\u0129\u00ba\u00e7\u0130\u00b0": 2843, "\u0120build": 2844, "\u00d0\u00bd\u00d0\u00b5": 2845, "\u0120dep": 2846, "\u00e6\u0142\u00b8": 2847, "ush": 2848, "day": 2849, "\u00e5\u00af\u00b9\u00e4\u00ba\u0130": 2850, "\u0120cour": 2851, "\u010d\u010a\u010d\u010a": 2852, "\u00e7\u0130\u00af\u00e5\u00a2\u0125": 2853, "\u00e5\u0127\u0127": 2854, "\u00d0\u00ba\u00d1\u0125": 2855, ",\u00e4\u00bd\u0128": 2856, "\u00c3\u00b1": 2857, "\u00e9\u013a\u00b3": 2858, "ato": 2859, "html": 2860, "_P": 2861, "\u0120As": 2862, ").\u010a": 2863, "\u0120found": 2864, "\u00d1\u0129\u00d0\u00b5\u00d1\u0123\u00d0\u00ba": 2865, "\u00e5\u0127\u00b3\u00e7\u00b3\u00bb": 2866, "\u0120state": 2867, "\u00e5\u0127\u00b6\u00e4\u00bb\u0138": 2868, "\u00d0\u0134": 2869, "\u00cf\u012e": 2870, "\u00ef\u00bc\u012e\u00e6\u012a\u0133": 2871, ",\u00e4\u00b8\u012f": 2872, "\u0120htt": 2873, "rite": 2874, "ural": 2875, "\u00e8\u00ae\u00b2": 2876, "\u00e5\u0132\u00ac": 2877, "\u00e5\u0141\u00b9": 2878, "\u00e8\u00bf\u00b0": 2879, "bo": 2880, "\u0120New": 2881, "\u0120health": 2882, "\u0120\u00d1\u0124\u00d0\u00b0\u00d0\u00ba": 2883, "\u0120je": 2884, "uro": 2885, "come": 2886, "code": 2887, "ization": 2888, "\u0120null": 2889, "\u00e5\u0131\u012e": 2890, "')": 2891, "\u0120same": 2892, "\u00e4\u00b8\u0138\u00e7\u0137\u012e": 2893, "raw": 2894, "Un": 2895, "\u00e5\u0123\u00a5": 2896, "ends": 2897, "\u0120proble": 2898, "\u00c4\u0141": 2899, "param": 2900, "\u0120world": 2901, "\u00e6\u012b\u00bf": 2902, "\u0120zu": 2903, "ando": 2904, "\u00e5\u012a\u00b0\u00e4\u00ba\u0128": 2905, "\u0120play": 2906, "\u0120oper": 2907, ",\"": 2908, "ION": 2909, "\u00e5\u013d\u0143": 2910, "\u00e4\u00b8\u00a5": 2911, "back": 2912, "gen": 2913, "idad": 2914, "AC": 2915, "Se": 2916, "ists": 2917, "word": 2918, "\u0120nil": 2919, "\u00e7\u0123\u00ab": 2920, "ware": 2921, "\u00e6\u0136\u00bf\u00e5\u00ba\u013e": 2922, "\u00d0\u00b8\u00d0\u00b4": 2923, "\u0120fact": 2924, "iter": 2925, "face": 2926, "bject": 2927, "\u00e9\u00bb\u0126": 2928, "ases": 2929, "ateg": 2930, "the": 2931, "type": 2932, "\u00e5\u0129\u0131": 2933, "ister": 2934, "\u0120bre": 2935, "\u0120did": 2936, "mp": 2937, "\u00e6\u00a4": 2938, "\u00d8\u00a7\u00d8\u00aa": 2939, "\u00e4\u00ba\u00b2": 2940, "\u00e8\u012a\u00ac": 2941, "\u0120effect": 2942, "\u00e3\u0122\u0124\u00e5\u013e\u00a8": 2943, "\u00e6\u0139\u00a9": 2944, "\u00e3\u0122\u0124\u00e2\u0122\u013f": 2945, "\u00e5\u00ae\u00a4": 2946, "\u0120Sh": 2947, "not": 2948, "\u0120href": 2949, "....": 2950, "ouse": 2951, "vir": 2952, "\u00e6\u0124\u00a3": 2953, "ream": 2954, "\u00e8\u0129\u00aa\u00e5\u00b7\u00b1\u00e7\u013c\u0126": 2955, "ny": 2956, "\u00e7\u013c\u0126\u00e6\u013a\u00af": 2957, "by": 2958, "\u00e5\u00ba\u00b7": 2959, "lich": 2960, "\u0120cle": 2961, "ante": 2962, "\u00e4\u00ba\u00ac": 2963, "\u0120\u00d0\u00bf\u00d0\u00be\u00d0\u00bb": 2964, "\u0120Sp": 2965, "\u00e5\u0132\u00ab": 2966, "\u00ce\u00bf\u00cf\u0127": 2967, "\u0120think": 2968, "oh": 2969, "\u00e5\u00ae\u013f": 2970, "\u0120top": 2971, "Cl": 2972, "-c": 2973, "\u0120son": 2974, "\u00d0\u00b0\u00d1\u0131": 2975, "\u0120cr": 2976, "ione": 2977, "\u00e5\u00bc\u0124": 2978, "\u00e8\u00b4\u0141": 2979, "\u00ce\u00ac": 2980, "\u00e5\u00af\u0128": 2981, "\u0120must": 2982, "(f": 2983, "\u0120again": 2984, "_S": 2985, "\u0120\u00d1\u0122": 2986, "Get": 2987, "ane": 2988, "ocial": 2989, "\u00e6\u00b2\u00b9": 2990, ".g": 2991, "\u00e5\u0128\u0127\u00e5\u00ae\u00b9": 2992, "\u0120\u00d1\u0131": 2993, "\u00e5\u0127\u00b7\u00e6\u013e\u012b": 2994, "\u00e8\u00bf\u013b\u00e7\u00a7\u012f": 2995, "ved": 2996, "-p": 2997, "ici": 2998, "\u00d1\u012b\u00d0\u00b5": 2999, "\u0120\u00d0\u0142": 3000, "\u00e7\u0130\u00b0\u00e5\u013e\u00a8": 3001, "ared": 3002, "Value": 3003, "\u0120kh": 3004, "ember": 3005, "\u00e5\u0132\u0125": 3006, "\u0120Res": 3007, "uff": 3008, "lete": 3009, "\u00e4\u00ba\u0128\u00e4\u00b8\u0122": 3010, "\")\u010a": 3011, "\u0120cho": 3012, "lt": 3013, "\u0120contin": 3014, "isk": 3015, "\u00e5\u00a4\u00a7\u00e7\u013c\u0126": 3016, "\u00e6\u00bf": 3017, "bers": 3018, "\u0120direct": 3019, "\u00e9\u00a1\u00bb": 3020, "\u00e1\u00ba\u00a3": 3021, "\u00c3\u0143a": 3022, "\u0120ist": 3023, "\u00e6\u013f\u00bf": 3024, "IS": 3025, "\u00d8\u012e": 3026, "incl": 3027, "\u0120\u0120\u010a": 3028, "ception": 3029, "\u00d0\u00b5\u00d0\u00b7": 3030, "\u0120Pl": 3031, "^{": 3032, "\u0120current": 3033, "ght": 3034, "\u0120made": 3035, "eter": 3036, "\u00d0\u00b6\u00d0\u00b5": 3037, ".,": 3038, "\u00e4\u00bb\u012d": 3039, "\u00ef\u00bc\u0130": 3040, "\u00e4\u00b8\u012c\u00e7\u013c\u0126": 3041, "\u0120experi": 3042, "\u00d0\u00bd\u00d1\u0131": 3043, "\u0120here": 3044, "\u00d1\u0124\u00d0\u00b0": 3045, "\u00e4\u00b8\u012f\u00e8\u0125\u00bd": 3046, "We": 3047, "\u00e5\u0129\u00bb": 3048, "\u0120\u00d1\u0127": 3049, "ety": 3050, "\u00e4\u00ba\u0134": 3051, "De": 3052, "\u00e8\u00bf\u013a\u00e6\u013a\u00af": 3053, "\u0120equ": 3054, "ness": 3055, "amb": 3056, "UL": 3057, "ava": 3058, "\u00e5\u0138\u0126": 3059, "\u0120design": 3060, "\u00e5\u013d\u0142\u00e6\u0143\u00a4": 3061, "\u00e8\u0140\u012f": 3062, "ather": 3063, "iven": 3064, "\u00e2\u0133": 3065, "\u0120von": 3066, "\u00e4\u00bb\u00a4": 3067, "\u0120\u00d0\u0132": 3068, "\u00e6\u0142\u00b9\u00e6\u012f\u00ae": 3069, "\u00e6\u012a\u0132\u00e4\u00b8\u00ba": 3070, "\u00e5\u0131\u0133\u00e7\u0136\u0141": 3071, "ett": 3072, "ron": 3073, ">\u010a\u010a": 3074, "\u0120local": 3075, "ified": 3076, "\u0120das": 3077, "cription": 3078, "\u00e5\u0127\u0143": 3079, "lease": 3080, "\u0120log": 3081, "ident": 3082, "\u00e9\u0136\u0122": 3083, "stand": 3084, "\u00e5\u00ba\u0137": 3085, "\u0120En": 3086, "\u00e8\u00bd\u00bb": 3087, "\u0120both": 3088, "ET": 3089, "son": 3090, "AP": 3091, "\u0120rest": 3092, "\u00e5\u0132\u00a6": 3093, "\u0120\u00d0\u00ba\u00d0\u00b0\u00d0\u00ba": 3094, "\u0120\u00d0\u0136": 3095, "\u0120\u00d8\u00b9": 3096, "\u00e6\u0131\u0132\u00e9\u00ab\u013a": 3097, "ico": 3098, "ocument": 3099, "\u00e7\u00bb\u013e": 3100, "\u0120ref": 3101, "\u0120last": 3102, "\u00d8\u00a7\u00db\u012e": 3103, "\u00e8\u00b4\u00a2": 3104, "\u0120day": 3105, "perty": 3106, "\");\u010a": 3107, "Tr": 3108, "\u00e6\u0141\u0132": 3109, "\u0120cap": 3110, "leg": 3111, "\u00d8\u00b5": 3112, "(s": 3113, "\u00e6\u00b2\u00b3": 3114, "\u0120prote": 3115, "\u00e9\u0125\u00bd\u00e6\u013a\u00af": 3116, "\u00e6\u00ac\u00be": 3117, "\u00e6\u012d\u00ac": 3118, "_{": 3119, "\u0120report": 3120, "';\u010a": 3121, "\u00e4\u00b8\u0122\u00e5\u00ae\u013c": 3122, "\u0120life": 3123, "...\u010a": 3124, "index": 3125, "\u0120call": 3126, "lection": 3127, "try": 3128, "\u00d0\u013c": 3129, "\u0120sit": 3130, "ird": 3131, "\u00d0\u00bb\u00d1\u012e": 3132, "\u00e7\u0141\u00a5\u00e9\u0123\u0135": 3133, "med": 3134, "\u00e5\u00b1\u0127": 3135, "\u00e6\u012f\u00a2": 3136, "\u0120project": 3137, "\u0120user": 3138, "\u00d8\u00b3\u00d8\u00aa": 3139, "\u00d0\u00b5\u00d0\u00b2": 3140, "por": 3141, "\u00d0\u00b8\u00d1\u0131": 3142, "\u00e6\u00a6": 3143, "\u00e7\u00bf": 3144, "ences": 3145, "\u0120dev": 3146, "\u0120place": 3147, "je": 3148, "men": 3149, "],": 3150, "\u00e4\u00b9\u0141\u00e6\u013a\u00af": 3151, "\u0120conf": 3152, "\u00e7\u00bb\u0135\u00e6\u0140\u0126": 3153, "\u00e5\u0124": 3154, "ats": 3155, "UT": 3156, "\u00e9\u013f\u00a9": 3157, "ason": 3158, "This": 3159, "uy": 3160, "\u00d1\u012d\u00d0\u00b5": 3161, "\u0120arg": 3162, "\u0120\u00d0\u00ba\u00d0\u00be\u00d1\u0124": 3163, "chen": 3164, "\u00e5\u0127\u00b4": 3165, "\u00e5\u00ae\u0140\u00e7\u0130\u00b0": 3166, "AD": 3167, "\u00e7\u0128": 3168, "\u0120\u0120\u0120\u0120\u010a": 3169, "\u00e6\u012b\u00be": 3170, "\u0120expl": 3171, "He": 3172, "\u0120\u00d9\u0126": 3173, "\u00e6\u013b\u00ae": 3174, "\u0120show": 3175, "\u00d8\u00b7": 3176, "\u0120final": 3177, "\u00e5\u00be\u012a\u00e5\u00a4\u013c": 3178, "\u0120vol": 3179, "\u00e4\u00ba\u00ba\u00e5\u0133\u013a": 3180, "\u0120him": 3181, "ral": 3182, "\u0120method": 3183, "\u00e4\u00ba\u00ba\u00e6\u00b0\u0133": 3184, "\u0120term": 3185, "ains": 3186, "\u00e7\u00aa\u0123": 3187, "\u00e6\u00bf\u0122": 3188, "\u0120learn": 3189, "\u00e5\u00b0\u00bd": 3190, "\u00e5\u00ae\u013a": 3191, "\u0120line": 3192, "ross": 3193, "\u00e5\u00a4\u00a7\u00e5\u0143\u00a6": 3194, "\u00e5\u012f\u012c": 3195, "era": 3196, "ission": 3197, "ka": 3198, "/s": 3199, ".A": 3200, "\u00e6\u012b\u0122\u00e6\u013e\u012b": 3201, "\u0120But": 3202, "\u0120important": 3203, "\u00e7\u0136\u00b7": 3204, "\u0120\u00e2": 3205, "\u0120?": 3206, "Key": 3207, "\u00e5\u0143\u013a\u00e5\u013e\u00a8": 3208, "\u0120imp": 3209, "\u00e7\u0137\u00a5": 3210, "\u00e7\u00a7\u00bb": 3211, "\u00e5\u00a5\u00bd\u00e7\u013c\u0126": 3212, "\u00e6\u0122\u0130": 3213, ",\u00e2\u0122\u013f": 3214, "\u00e8\u00af\u012f": 3215, "\u00e8\u0128": 3216, "\u00e5\u00a9": 3217, "\u00e3\u0124\u00b9": 3218, "\u00e4\u00bb\u00bd": 3219, "\u00e7\u00a1\u0122": 3220, "ste": 3221, "\u0120\u00da\u00a9": 3222, "ros": 3223, "\u00e5\u00af\u012e": 3224, "\u0120Be": 3225, "UR": 3226, "\u00ef\u00bc\u012e\u00e5\u00b9\u00b6": 3227, "\u00e7\u013d\u00b8\u00e5\u0127\u00b3": 3228, "\u0120Cl": 3229, "\u00d8\u00ae": 3230, "\u00d0\u00bc\u00d0\u00b0": 3231, "less": 3232, "\u00e5\u0141\u00ba\u00e7\u00a1\u0122": 3233, "\u00e5\u0127\u012f": 3234, "rag": 3235, "\u0120ge": 3236, "\u00e6\u013a\u0141": 3237, "ponse": 3238, "\u00d0\u00ba\u00d0\u00be\u00d0\u00b2": 3239, "\u00e6\u0143\u00a2": 3240, "til": 3241, "\u0120private": 3242, "ager": 3243, "\u00d0\u0132": 3244, "\u00e7\u0137\u013b": 3245, "\u0120\u00d1\u0123\u00d0\u00bb": 3246, "\u00d0\u00bd\u00d0\u00b0\u00d1\u0131": 3247, "\u0120level": 3248, "\u00e4\u00ba\u0133": 3249, "\u0120\u00d0\u00a2": 3250, "\u00d0\u00b5\u00d1\u0129": 3251, "\u0120sal": 3252, "\u00e5\u00be\u0123": 3253, "\u00e6\u0130\u00a7\u00e5\u012a\u00b6": 3254, "\u00d0\u013f": 3255, "\u00e6\u00af\u012f": 3256, "\u0120qual": 3257, "akes": 3258, "\u0120error": 3259, "\u0120auf": 3260, "ca": 3261, "\u00e1\u00bb\u013b": 3262, "\u00e6\u012b\u00a7": 3263, "ament": 3264, "\u0120lead": 3265, "\u00e3\u0125\u00bc\u00e3\u0125": 3266, "\u00e9\u00b8": 3267, "\u00e5\u0138\u013e": 3268, "\u0120\u00d1\u0123\u00d0\u00bf": 3269, "\u0120try": 3270, "umn": 3271, "\u0120home": 3272, "\u0120color": 3273, "\u0120leg": 3274, "\u0120applic": 3275, "\u00d1\u0128\u00d0\u00b8\u00d0\u00b8": 3276, "\u0120Fr": 3277, "ining": 3278, "aterial": 3279, "\u0120\\\u010a": 3280, "\u0120iss": 3281, ",\u00e6\u012a\u0133": 3282, "\u0120mat": 3283, "(t": 3284, "\u0120invest": 3285, "\u0120um": 3286, "\u00e5\u0141\u00ba\u00e6\u013e\u00ac": 3287, "\u0120struct": 3288, "\u00e6\u013f\u0130": 3289, "\u00ef\u00bc\u012e\u00e4\u00bb\u0138": 3290, "\u00e5\u0131\u0133\u00e7\u0130\u00b0": 3291, "ession": 3292, "\u00e7\u0136\u00b1\u00e4\u00ba\u0130": 3293, "\u00e8\u012b\u00af": 3294, "\u00d0\u00b8\u00d0\u00b8": 3295, "\u00e8\u00ae\u00a4\u00e4\u00b8\u00ba": 3296, "\u0120van": 3297, "\u00e9\u0122\u0123": 3298, "\u00e5\u00ae\u00b3": 3299, ":\"": 3300, "\u0120create": 3301, "\u00e7\u012d\u00ac": 3302, "duct": 3303, "itor": 3304, "\u0120d\u00c3\u00a9": 3305, "\u00e4\u00b8\u0122\u00e4\u00ba\u013d": 3306, "\u00e7\u00ab\u00af": 3307, "\u00e4\u00b8\u00b4": 3308, "ailable": 3309, "\u0120\u0120\u0120\u0120\u0120\u0120\u0120\u0120\u0120\u0120\u0120\u0120\u0120\u0120\u0120\u0120\u0120\u0120\u0120\u0120\u0120\u0120\u0120\u0120\u0120\u0120\u0120": 3310, "_T": 3311, "\u00c3\u00aan": 3312, "By": 3313, "\u0120\u00d0\u00bf\u00d1\u0122\u00d0\u00b5\u00d0\u00b4": 3314, "\u00d1\u012c": 3315, "\u00c3\u00b6r": 3316, "\u00d0\u00b0\u00d0\u00b9": 3317, "\u0120On": 3318, "enn": 3319, "().": 3320, "lar": 3321, ");": 3322, "ks": 3323, "\u0120cost": 3324, "\u00e5\u0131\u00a6": 3325, "\u00e7\u00bb\u0135\u00e6\u0140\u013e": 3326, "\u00e7\u013c\u00ae": 3327, "color": 3328, "\u00e7\u0143\u0136": 3329, "\u0120->": 3330, "\u00e4\u00b8\u0143\u00e5\u00bf\u0125": 3331, "mit": 3332, "\u00e5\u012c\u0141\u00e8\u0125\u00bd": 3333, "ving": 3334, "Item": 3335, "['": 3336, "\u00e5\u00a4\u0126\u00e7\u0132\u0128": 3337, ".\"": 3338, "\u0120fa": 3339, "\u00e5\u012a\u00bb": 3340, "\u00e6\u00af\u0136\u00e8\u00be\u0125": 3341, "iving": 3342, "viron": 3343, "\u00e4\u00b8\u00be": 3344, "www": 3345, "export": 3346, "argin": 3347, "empl": 3348, "ido": 3349, "\u0120ben": 3350, "\u00e8\u00b5\u013d": 3351, "\u0120writ": 3352, "\u0120order": 3353, "\u00e8\u00b5\u0126\u00e6\u00ba\u0132": 3354, "\u00e8\u00bd\u00bd": 3355, "\u0120\u00d0\u00b8\u00d0\u00bd": 3356, "\u00e5\u012e\u0127\u00e6\u012d\u00ac": 3357, "\u00e7\u0131\u0143": 3358, "\u0120Te": 3359, "\u0120open": 3360, "\u00d1\u0131\u00d1\u0124": 3361, ",\u00e8\u0122\u012e": 3362, "file": 3363, "\u00e7\u0142\u00b4": 3364, "\u0120activ": 3365, "++": 3366, "http": 3367, "\u00e5\u012f\u00b0": 3368, "UN": 3369, "ves": 3370, "\u00e5\u013f\u013c": 3371, "\u00e4\u00b9\u012d\u00e9\u0139\u00b4": 3372, "),\u010a": 3373, "\u0120pay": 3374, "\u00e8\u00ae\u0143": 3375, "\u00e5\u0132\u00b8": 3376, "\u00e7\u00ac\u00ac\u00e4\u00ba\u012e": 3377, "\u0120pop": 3378, "\u00e1\u00ba\u00a5": 3379, "):": 3380, "ypes": 3381, "\u00e5\u0127\u00ab": 3382, "\u0120size": 3383, "\u00c5\u013b": 3384, "\u0120consider": 3385, "bre": 3386, "\u0120great": 3387, "\u0120pot": 3388, "une": 3389, "\u0120cert": 3390, "\u00e5\u00af\u0141": 3391, "**\u010a": 3392, "\u0120gover": 3393, "OT": 3394, "\u00e7\u00bd\u0133\u00e7\u00bb\u013e": 3395, "ium": 3396, "\u00c3\u00a1n": 3397, "ha": 3398, "ability": 3399, "Im": 3400, "\u00e7\u00be\u0130\u00e5\u013d\u00bd": 3401, "\u0120f\u00c3\u00bcr": 3402, "\u0120ide": 3403, "\u00e8\u00bf\u013b\u00e4\u00b8\u0122": 3404, "\u0120cu": 3405, "\u00c3\u00a7\u00c3\u00a3o": 3406, "nect": 3407, "\u00c3\u00a9r": 3408, "\u0120rece": 3409, ".C": 3410, "\u00da\u00af": 3411, "As": 3412, "cur": 3413, "\u00e0\u00a6": 3414, "\u0120Ad": 3415, "\u00e6\u0142\u0129\u00e5\u0129\u0128": 3416, "iment": 3417, "arly": 3418, "ED": 3419, "\u00e6\u013f\u00a5\u00e7\u013c\u0126": 3420, "bar": 3421, "State": 3422, "\u00e4\u00b8\u0122\u00e8\u012a\u00ac": 3423, "include": 3424, "\u0120present": 3425, "\u00e6\u012a\u0138\u00e8\u0122\u0127": 3426, "\u00e9\u0137\u0129": 3427, "\u0120eas": 3428, "']": 3429, "\u0120pub": 3430, "\u0120String": 3431, "\u0120Ind": 3432, "\u0120How": 3433, "\u0120default": 3434, "\u0120sl": 3435, "\u00c4\u0129": 3436, "\u00e4\u00ba\u013c": 3437, "\u0120pas": 3438, "\u00e4\u00b8\u0135\u00e4\u00b8\u013c": 3439, "****************": 3440, "\u0120market": 3441, "\u00e8\u0139": 3442, "conom": 3443, "\u00e5\u012c\u00b3": 3444, "\u0120without": 3445, "\u00e7\u00ba\u00aa": 3446, "\u00e5\u012f\u00ab": 3447, "\u0120ce": 3448, "\u0120Col": 3449, "For": 3450, "ithub": 3451, "iversity": 3452, "\u00d1\u0122\u00d0\u00be": 3453, "\u0120vo": 3454, "af": 3455, "\u00e4\u00ba\u00a7\u00e4\u00b8\u013c": 3456, "\u0120une": 3457, "View": 3458, "\u0120\u00d0\u00bc\u00d0\u00be\u00d0\u00b6": 3459, "ients": 3460, "\u00e4\u00bc\u00a4": 3461, "lis": 3462, "\u0120anal": 3463, "\u0120disc": 3464, "\u0120Amer": 3465, "\u0120Ph": 3466, "\u0120hab": 3467, "\u0120during": 3468, "\u00e6\u00ac\u00a2": 3469, "icle": 3470, "\u0120\u00cf\u0122": 3471, "\u0120appro": 3472, "\u00e9\u00bc": 3473, "\u00d1\u0122\u00d1\u012d": 3474, "\u00e5\u00b7\u00a5\u00e7\u00a8\u012d": 3475, "\u0120adv": 3476, "cul": 3477, "unt": 3478, "input": 3479, "ino": 3480, "\u00e9\u013f\u0140\u00e5\u00b8\u00b8": 3481, "po": 3482, "\u0120mov": 3483, "\u00e7\u0141\u00a5\u00e8\u00af\u0128": 3484, "\u0120\u00d8\u00a3": 3485, "func": 3486, "\u00e4\u00b9\u00b0": 3487, "\u00d1\u012a\u00d0\u00b5": 3488, "\u0120tri": 3489, "\u0120stand": 3490, "\u00e5\u00ba\u0136\u00e7\u0136\u00a8": 3491, "\u0120grow": 3492, "\u00e8\u00a1\u00a5": 3493, "\u0120\u00d8\u00b3": 3494, "\u00e6\u012c\u0137\u00e8\u00b5\u0126": 3495, "\u00e5\u0133\u00a2": 3496, "\u0120\u00d0\u013a": 3497, "\u00e5\u00bf\u0127\u00e9\u00a1\u00bb": 3498, "\u00e9\u013a\u00b6": 3499, "\u00e6\u0135\u012f": 3500, "action": 3501, "\u00e3\u0124\u012c": 3502, "\u0120men": 3503, "\u00e3\u0123\u012d": 3504, "\u0120lim": 3505, "oot": 3506, "\u00e2\u0122\u013f\u00ef\u00bc\u012e": 3507, "\u00e6\u013b\u00ba": 3508, "\u0120research": 3509, "\u0120still": 3510, "\u0120check": 3511, "\u0120come": 3512, "\u0120\u00d1\u0128": 3513, "\u0120hist": 3514, "config": 3515, "\u00e9\u00bb\u0133": 3516, "\u00e4\u00b8\u00ba\u00e4\u00ba\u0128": 3517, "\u0120object": 3518, "aster": 3519, "\u0120week": 3520, "\u0120hum": 3521, "\u00e7\u00a6\u0131": 3522, "Object": 3523, "\u0120\u00d0\u00ba\u00d0\u00be\u00d1\u0124\u00d0\u00be\u00d1\u0122": 3524, "\u00d0\u00b8\u00d0\u00ba": 3525, "\u00d1\u0124\u00d0\u00b5": 3526, "\u0120ret": 3527, "\u00e9\u00b2": 3528, "iqu": 3529, "\u00e9\u0136\u013b": 3530, "\u0120around": 3531, "\u00c5\u00be": 3532, "OM": 3533, "\u0120law": 3534, "\u0120content": 3535, "\u0120school": 3536, ".\u00e2\u0122\u013f\u010a": 3537, "ways": 3538, "\u00e5\u0133\u00b3": 3539, "\u0120book": 3540, "\u00c3\u0141": 3541, "\u0120field": 3542, "\u0120\u00d9\u0129": 3543, "umber": 3544, "\u00e5\u00be\u0127": 3545, "\u00e6\u012c\u0139": 3546, "\u00e6\u00b3\u00a2": 3547, "\u00e4\u00bc\u00bc": 3548, "\u00d8\u00a7\u00d9\u0127": 3549, "\u00e5\u00ae\u00a1": 3550, "\u00e5\u0141\u0130\u00e5\u00b8\u0124": 3551, "\u0120custom": 3552, "\u0120word": 3553, "\u0120small": 3554, "error": 3555, "\u0120ng": 3556, "iet": 3557, "-w": 3558, "ails": 3559, "\u00ef\u00bc\u012e\u00e4\u00b9\u0141": 3560, "\u00e5\u012f\u0142": 3561, "\u00e6\u0137\u013b\u00e5\u0143\u00a6": 3562, "icense": 3563, "\u0120perform": 3564, "\u0120enc": 3565, "\u00e5\u012f\u0125": 3566, "zen": 3567, "\u0120water": 3568, "\u00e7\u00a7\u0133\u00e5\u0143\u00a6": 3569, "inc": 3570, "ination": 3571, "ference": 3572, "\u00d0\u00b5\u00d1\u0123\u00d1\u0124": 3573, "\u0120loc": 3574, "\u0120///": 3575, "\u0120coun": 3576, "vert": 3577, "\u00e9\u00be\u013b": 3578, "ki": 3579, "\u0120three": 3580, "\u0120\u00d9\u0128": 3581, "\u00c3\u00bd": 3582, "\u00e2\u0122\u0135": 3583, "))\u010a": 3584, "\u00e8\u013b\u00bd": 3585, "nal": 3586, "\u00d0\u00b5\u00d0\u00bd\u00d1\u012e": 3587, "agement": 3588, "\u00e3\u0124\u012e": 3589, "\u0120access": 3590, "ero": 3591, "\u0120pur": 3592, "\u00e4\u00b9\u00a1": 3593, "ainer": 3594, "\u00e5\u00a4\u00a7\u00e5\u00ae\u00b6": 3595, "\u0120aff": 3596, "\u00e5\u00a6\u012a": 3597, "ana": 3598, "\u00d0\u00b8\u00d1\u0123\u00d1\u0124": 3599, "iles": 3600, "\u00d1\u0125\u00d0\u00bf": 3601, "\u0120service": 3602, "\u0120fac": 3603, "\u00e7\u0135": 3604, "\u0120dat": 3605, "\u00e8\u0125\u00bd\u00e5\u00a4\u0141": 3606, "\u0120port": 3607, "\u0120second": 3608, "\u0120say": 3609, "\u0120\u00d0\u00b2\u00d1\u0123\u00d0\u00b5": 3610, "\u00e5\u0127\u00b6\u00e4\u00b8\u0143": 3611, "\u00e4\u00b8\u00bb\u00e4\u00b9\u012b": 3612, "cle": 3613, "resent": 3614, "\u0120They": 3615, "met": 3616, "init": 3617, "\u00e8\u00b7\u0141": 3618, "\u00e5\u00ba\u0139": 3619, "ret": 3620, "\u00d1\u012d\u00d1\u0127": 3621, "\u00e5\u00a6\u0124\u00e4\u00bd\u0137": 3622, "\u00ed\u0137": 3623, "_name": 3624, "\u00d9\u012c\u00d8\u00a9": 3625, "omen": 3626, "\u00cf\u012b": 3627, "|\u010a": 3628, "do": 3629, "\u00e7\u013c\u0126\u00e6\u0139\u00b6\u00e5\u0122\u013b": 3630, "},\u010a": 3631, "\u00e1\u00bb\u0133": 3632, "ados": 3633, "\u0120chang": 3634, "\u00d0\u00b1\u00d0\u00be\u00d1\u0124": 3635, "\u00e9\u0127\u0134": 3636, "\u0120So": 3637, "File": 3638, "ackage": 3639, "\u0120next": 3640, "\u0120control": 3641, "\u0120interest": 3642, "\u00e5\u00bd\u00a2\u00e6\u012a\u0132": 3643, "\u00e9\u0134\u00b1": 3644, "Ind": 3645, "\u00e4\u00bd\u013b": 3646, "\u00ef\u00bc\u012e\u00e6\u013a\u00af": 3647, "\u0120All": 3648, "Text": 3649, "ni": 3650, "ued": 3651, "wit": 3652, "\u00e6\u00b6\u00b2": 3653, "###": 3654, "ift": 3655, "\u0120\u00cf\u0125": 3656, "On": 3657, "IM": 3658, "\u00e8\u012d\u00a5": 3659, "\";\u010a": 3660, "\u00e8\u0134": 3661, "ella": 3662, "\u00d0\u00bd\u00d0\u00be\u00d0\u00b5": 3663, "\u0120]": 3664, "\u00e8\u00b4\u0143": 3665, "\u0120event": 3666, "tes": 3667, "loat": 3668, "\u0120\u00ce\u00ba": 3669, "\u00e9\u0135\u00b6": 3670, "\u0120count": 3671, "\u00e3\u0122\u0132": 3672, "\u00e7\u00bb\u00a7": 3673, "\u00e6\u012b\u00b9": 3674, "\u0120including": 3675, "\u00e9\u0143": 3676, "\u00e5\u013e\u00b0\u00e5\u012e\u00ba": 3677, "mod": 3678, "Info": 3679, "\u00e8\u00ae\u00a1\u00e7\u00ae\u0139": 3680, "_M": 3681, "ources": 3682, "obal": 3683, "\u00e5\u013a": 3684, "\u00e8\u00a1\u012e\u00e4\u00b8\u00ba": 3685, "\u00e5\u00b8\u00ae": 3686, "\u00c3\u00ac": 3687, "\u0120\u00d8\u00a7\u00d9\u0126\u00d9\u0127": 3688, "\u00e3\u0122\u0133": 3689, "\u0120\u00d0\u00ba\u00d0\u00be\u00d0\u00bc": 3690, "_D": 3691, "\u00e6\u012d\u0127": 3692, ".M": 3693, "\u00e3\u0124\u00a4": 3694, "ocus": 3695, "\u00d9\u012b": 3696, "\u0120\u00d0\u0133": 3697, "OS": 3698, "\u00e8\u00b4\u00a8\u00e9\u0129\u0131": 3699, "ogle": 3700, "\u00e5\u0132\u0139": 3701, "\u00e6\u00b2\u00bb\u00e7\u0138\u0139": 3702, ",\u00e5\u00b9\u00b6": 3703, "umm": 3704, "\u00e6\u00bd": 3705, "='": 3706, "\u0120como": 3707, "\u0120change": 3708, "\u0120require": 3709, "ration": 3710, "\u00e2\u0122\u00a6\u00e2\u0122\u00a6": 3711, "oad": 3712, "ours": 3713, "\u00e8\u00b4\u00a7": 3714, "\u00e6\u013f\u00a1\u00e4\u00bb\u00b6": 3715, "icro": 3716, "ync": 3717, "But": 3718, "\u00c4\u00b1n": 3719, "\u0120spe": 3720, "\u0120vi": 3721, "\u00e5\u0131\u00b6": 3722, "\u0120Or": 3723, "Le": 3724, "US": 3725, "\u00e5\u0130\u0128\u00e5\u0131\u00b2": 3726, "fr": 3727, "\u0120power": 3728, "\u0120Is": 3729, "\u00e4\u00b8\u0125": 3730, "\u00e5\u013f\u0139": 3731, "\u00e4\u00b8\u00aa\u00e4\u00ba\u00ba": 3732, "\u00ef\u00bc\u012e\u00e6\u013e\u012b": 3733, "ida": 3734, "\u0120\u00ce\u00b1": 3735, "\u0120Pr": 3736, "\u0120bas": 3737, ".html": 3738, "\u00e8\u013d": 3739, "\u0120eng": 3740, "\"></": 3741, "requ": 3742, "\u0120init": 3743, "ativ": 3744, "\u0120model": 3745, "\u0120\u00d8\u00b1": 3746, "orn": 3747, "\u0120mult": 3748, "\u00ce\u0143": 3749, "\u00e9\u00a6\u013b": 3750, "\u00e5\u0143\u00a6\u00e6\u0142\u00a1": 3751, "_n": 3752, "\u00e7\u00bc\u00ba": 3753, "\u00e6\u00b1\u012b": 3754, "Al": 3755, "\u00e5\u013d\u00bd\u00e9\u013b\u0127": 3756, "\u00e7\u00bd\u0139": 3757, "ands": 3758, "ura": 3759, "\u0120available": 3760, "\u00d1\u012d\u00d0\u00b9": 3761, "\u0120dans": 3762, "\u0120ident": 3763, "ags": 3764, "AG": 3765, ".set": 3766, "\u00e8\u00b5\u00b7\u00e6\u013f\u00a5": 3767, "uest": 3768, "etwork": 3769, "\u00e9\u013c\u013e": 3770, "\u00e9\u0128": 3771, "\u00e5\u012a\u00a9\u00e7\u0136\u00a8": 3772, "\u00e9\u00ba": 3773, "\u0120few": 3774, "\u0120\u00d1\u012f\u00d1\u0124": 3775, "\u00e3\u0124\u0124": 3776, "\u00e8\u0126\u0133": 3777, "\u0120There": 3778, "icy": 3779, "\u0120view": 3780, "state": 3781, "\u00e6\u013d\u00be": 3782, "If": 3783, "\u0120App": 3784, ".P": 3785, "\u0120social": 3786, "\u00e5\u00a4\u00ab": 3787, "\u00e8\u0143": 3788, "ili": 3789, "Time": 3790, "\u00d0\u00b6\u00d0\u00b4": 3791, "\u0120group": 3792, "\u00e7\u0141\u0143": 3793, "\u00e6\u013d\u00b2": 3794, "\u0120govern": 3795, "IR": 3796, "\u00ef\u00bc\u012e\u00e4\u00bb\u00a5": 3797, "\u0120La": 3798, "\u00e7\u00bb\u013f": 3799, "\u0120ho": 3800, "\u0120os": 3801, "\u0120item": 3802, "\".": 3803, "\u00e8\u00a7\u0126\u00e5\u00ae\u013c": 3804, "AB": 3805, "vironment": 3806, "\u00e5\u0132\u00a7": 3807, "void": 3808, "\u00e9\u0124\u00a3\u00e4\u00b9\u012a": 3809, "json": 3810, "\u0120To": 3811, "\u0120month": 3812, "\u00e6\u0143\u00a6": 3813, "\u00e8\u00bf\u013a\u00e6\u013e\u012b": 3814, "\u00e7\u012b\u012e": 3815, ".n": 3816, "_F": 3817, "):\u010a": 3818, "\u00e7\u00a8\u0130": 3819, "\u00e2\u0122\u013bre": 3820, "\u00e9\u0127\u00b8": 3821, "ief": 3822, "\u00e5\u012f\u0137\u00e4\u00bd\u012f": 3823, "\u00e8\u00a1\u00a8\u00e7\u00a4\u00ba": 3824, "\u0120put": 3825, "\u0120less": 3826, "\u0120path": 3827, "\u00e6\u00b0\u00b4\u00e5\u00b9\u00b3": 3828, "\u0120old": 3829, "\u00e6\u013a\u00a5": 3830, "\u0120Par": 3831, "\u0120might": 3832, "\u0120width": 3833, "\u0120provide": 3834, "\u00e3\u0125\u012a": 3835, "\u00e7\u0142\u0123": 3836, "\u00e7\u00b4\u00a2": 3837, "\u00e6\u0124\u00a3\u00e8\u0122\u0127": 3838, "\u00e9\u00a2\u0133": 3839, "ables": 3840, "nen": 3841, "ios": 3842, "ification": 3843, "\u00e5\u00ba\u0136\u00e8\u00af\u00a5": 3844, "\u00e5\u0135\u00aa": 3845, "ouble": 3846, "erg": 3847, "\u0120students": 3848, "\u00e5\u00ae\u00a3": 3849, "\u00d0\u00be\u00d0\u00b5": 3850, "\u00e7\u00b4\u00a7": 3851, "\u00e5\u00a2\u0140\u00e5\u012c\u0142": 3852, "\u0120lib": 3853, "\u00e6\u0138\u0129\u00e4\u00bb\u00b6": 3854, "ries": 3855, "angu": 3856, "\u00e5\u0136\u00ae": 3857, "\u00e6\u00af\u0134": 3858, "\u00e6\u0139\u0127": 3859, "off": 3860, "left": 3861, "ision": 3862, "\u00e7\u00af": 3863, "\u00e4\u00ba\u00a7\u00e7\u0136\u0141": 3864, "\u00e9\u0129\u0129\u00e7\u0136\u00a8": 3865, "\u00e9\u00a2\u013f": 3866, "\u00e5\u0131\u00a5": 3867, "\u0120{\u010d\u010a": 3868, "itional": 3869, "\u00e7\u012a\u00b6": 3870, "\u0120beh": 3871, "ken": 3872, "\u0120prim": 3873, "\u00d0\u00b8\u00d1\u0124\u00d0\u00b5\u00d0\u00bb\u00d1\u012e": 3874, "LO": 3875, "oken": 3876, "\u00e5\u012f\u013c": 3877, "\u00e5\u0131\u00b3": 3878, "($": 3879, "\u00e5\u012f\u00a1": 3880, "lish": 3881, "\u0120au": 3882, ",\u00e6\u013e\u012b": 3883, "itive": 3884, "\u00e4\u00b9\u013f": 3885, "\u00e6\u0126\u00bf": 3886, "trans": 3887, "\u00e9\u0136\u00ae": 3888, "da": 3889, "\u00d0\u00bb\u00d0\u00b5": 3890, "arge": 3891, "\u0120US": 3892, "\u00ef\u00bc\u012e\u00e4\u00b8\u0122": 3893, "Config": 3894, "print": 3895, "\u00e5\u00b7\u00a6": 3896, "\u00e8\u0125\u012e": 3897, "\u00e8\u0129\u00aa\u00e7\u0126\u00b6": 3898, "icon": 3899, "\u00e6\u013e\u00a8": 3900, "ctor": 3901, "\u0120mus": 3902, "IP": 3903, "jor": 3904, "\u00c3\u00a9e": 3905, "\u0120font": 3906, "ches": 3907, "\u00d0\u00bc\u00d0\u00b5\u00d0\u00bd": 3908, "ais": 3909, "i\u00e1\u00bb\u0129": 3910, "ances": 3911, "\u0120going": 3912, "\u0120within": 3913, "\u0120left": 3914, "\u0120things": 3915, "\u0120better": 3916, ",\u00e8\u00bf\u013b": 3917, "\u0120||": 3918, "\u00e3\u0123\u00a3": 3919, "\u00d0\u00be\u00d0\u00bc\u00d1\u0125": 3920, "IL": 3921, "\u00ce\u00b3": 3922, "illion": 3923, "\u00e5\u00b2\u0123": 3924, "\u00e7\u0123\u00b5": 3925, "rist": 3926, "ately": 3927, "\u0120tot": 3928, "mt": 3929, "\u00d0\u00bd\u00d1\u012d\u00d0\u00bc": 3930, "lock": 3931, "\u00e4\u00b9\u012d\u00e5\u0132\u0130": 3932, "\u00e7\u00ac\u00a6": 3933, "\u00e4\u00bb\u013a": 3934, "IG": 3935, "\u00e5\u00b8\u012e": 3936, "\u00e5\u012a\u00a4": 3937, "\u0120\u00d8\u00b4": 3938, "acter": 3939, "\u00e6\u0141\u0135": 3940, "\u00d8\u00a3": 3941, "ending": 3942, "\u00e5\u013d\u00ba": 3943, "Test": 3944, "\u00e5\u00b7\u00b4": 3945, "\u0120style": 3946, "Request": 3947, "ived": 3948, "\u00d0\u00b0\u00d0\u00bd\u00d0\u00b8\u00d1\u0131": 3949, ".org": 3950, "(m": 3951, "\u0120Mar": 3952, "ression": 3953, "\u0120free": 3954, "\u0120\u00ea": 3955, "--------------------------------": 3956, "\u00e9\u0135\u0123": 3957, "\u0120company": 3958, "Sh": 3959, "ftware": 3960, "\u00e6\u012f\u0141": 3961, "\u0120example": 3962, "\u0120request": 3963, "divid": 3964, "\u00e7\u013d\u00b4\u00e6\u0130\u00a5": 3965, "\u0120ste": 3966, "wer": 3967, "content": 3968, "\u0120success": 3969, "An": 3970, "\u0120too": 3971, "oud": 3972, "\u00ce\u00b1\u00ce\u00b9": 3973, "\u00e7\u00a8\u00b3": 3974, "ilit": 3975, "hes": 3976, "\u0120static": 3977, "\u00d0\u00b5\u00d1\u0122\u00d0\u00b0": 3978, "\u00e7\u00a3": 3979, "vers": 3980, "\u0120redu": 3981, "\u0120\u00e2\u0122\u013a": 3982, "\u00d0\u00b0\u00d0\u00b4": 3983, "[]": 3984, "\u00e7\u013d\u00ae\u00e6\u0142\u0129": 3985, "ano": 3986, "inst": 3987, "\u00e7\u0139\u0129": 3988, "adding": 3989, "\u00d0\u013a": 3990, "\u0120pod": 3991, "ots": 3992, "\u0120pract": 3993, "));\u010a": 3994, "\u0120happ": 3995, "\u00e7\u013d\u013a": 3996, "\u00d1\u0133": 3997, "\u00e5\u00ae\u0140\u00e9\u013b\u0127": 3998, "\u0120qui": 3999, "Form": 4000, "\u0120allow": 4001, "\u0120children": 4002, "\u0120\u00d1\u0123\u00d0\u00be": 4003, "\u0120head": 4004, "\u00e4\u00b8\u00a4\u00e4\u00b8\u00aa": 4005, "alt": 4006, "\u0120super": 4007, "\u0120prom": 4008, "\u00e6\u0142\u0133": 4009, "tain": 4010, "\u00e5\u0128\u00b2": 4011, "\u0120mar": 4012, "\u00ce\u00ae": 4013, "\u00e5\u00b0\u0126": 4014, "ently": 4015, "\u0120impro": 4016, "Path": 4017, "\u0120offer": 4018, "HE": 4019, "ling": 4020, "\u0120individ": 4021, "dev": 4022, "ething": 4023, "len": 4024, "cer": 4025, "\u00e6\u0136\u00bf\u00e7\u0143\u0138": 4026, "\u00e8\u0125\u0140": 4027, "iones": 4028, "\u00e7\u013d\u00ae\u00e5\u012b\u012f": 4029, "rap": 4030, "\u0120${": 4031, "\u0120plan": 4032, ".w": 4033, "OP": 4034, "\u0120background": 4035, "\u0120gre": 4036, "uk": 4037, "\u0120print": 4038, ">\u010d\u010a": 4039, "./": 4040, "[i": 4041, "ito": 4042, "\u0120beg": 4043, "\u00e5\u013e\u00b0\u00e6\u0138\u00b9": 4044, "\u00e7\u00bb\u0125": 4045, "Pl": 4046, "\u00e6\u00a6\u0124": 4047, "\u0120\u00d0\u00ba\u00d0\u00be\u00d0\u00bd": 4048, "Set": 4049, "\u0120\u00d0\u00be\u00d0\u00bf": 4050, "\u00e8\u00af\u012b": 4051, "ards": 4052, "\u0120employ": 4053, "\u0120keep": 4054, "\u00e4\u00bf\u0125": 4055, "\u00e9\u0125\u00a8\u00e9\u0139\u00a8": 4056, "\"\u010a\u010a": 4057, "\u00e5\u0123\u0129": 4058, "\u0120following": 4059, "\u0120cas": 4060, "oss": 4061, "\u00e6\u013e\u013f": 4062, "\u00e7\u00b2\u00be\u00e7\u00a5\u0140": 4063, "\u0120body": 4064, "\u00e4\u00bb\u00a3\u00e8\u00a1\u00a8": 4065, "\u00e0\u00a4": 4066, "iod": 4067, "\u00e5\u00ae\u012e\u00e6\u012a\u0132": 4068, "\u00e5\u012a\u00b6\u00e5\u00ba\u00a6": 4069, "\u00e4\u00ba\u00ab": 4070, "ume": 4071, "\u0120another": 4072, "\u0120gen": 4073, "\u00e6\u00a4\u012f": 4074, "rain": 4075, "\u0120online": 4076, ".D": 4077, ",\u00e4\u00b9\u0141": 4078, "ideo": 4079, "\u00c3\u00a9n": 4080, "\u00d9\u012a\u00d8\u00b1": 4081, "\u00e4\u00bb\u0138\u00e7\u013c\u0126": 4082, "/m": 4083, "\u00d0\u00bb\u00d0\u00be": 4084, "\u00d0\u00bd\u00d0\u00be\u00d1\u0123\u00d1\u0124\u00d0\u00b8": 4085, "\u00e8\u012f\u012b": 4086, "\u00c5\u00a1": 4087, "\u00e9\u0134\u012a": 4088, "\u0120std": 4089, "ules": 4090, "ples": 4091, "\u00e7\u0139\u013d": 4092, "place": 4093, "\u00e9\u013f\u013b": 4094, "\u0120Man": 4095, "irm": 4096, "\u0120ant": 4097, "\u0120really": 4098, "\u00d0\u00a2": 4099, "\u00e9\u00a3\u0140": 4100, "\u00e5\u012b\u00af": 4101, "api": 4102, "\u00e5\u00bb\u00ba\u00e7\u00ab\u012d": 4103, "\u00e5\u0131\u013a\u00e5\u012e\u0138": 4104, "\u00e3\u0125\u0125": 4105, "\u00e5\u0123\u00a5\u00e5\u00ba\u00b7": 4106, "public": 4107, "\u00d1\u0125\u00d1\u0122": 4108, "\u0120sich": 4109, "\u0120supp": 4110, "\u00e7\u0136\u013c": 4111, "\u00e8\u00a7\u00a3\u00e5\u0128\u00b3": 4112, "\u0120\u00d1\u012a": 4113, "\u00d0\u0142": 4114, "ittle": 4115, "\u0120services": 4116, "plic": 4117, "\u00d1\u0123\u00d1\u0124\u00d0\u00b2\u00d0\u00b5\u00d0\u00bd": 4118, "\u00d0\u00b0\u00d0\u00bb\u00d0\u00b8": 4119, "igen": 4120, "\u0120include": 4121, "vol": 4122, "lected": 4123, "\u0120[]": 4124, ".j": 4125, "/b": 4126, "ho": 4127, "\u0120nicht": 4128, "\u00d0\u00bd\u00d0\u00be\u00d1\u0123\u00d1\u0124\u00d1\u012e": 4129, "\u0120position": 4130, "\u00e9\u00aa\u00a8": 4131, "ENT": 4132, ".\"\u010a": 4133, "\u00e5\u00bc\u0122\u00e5\u00b1\u0137": 4134, "\u00e6\u0122\u0130\u00e4\u00b9\u012a": 4135, "\u0120Cont": 4136, "\u00e8\u0122\u0123\u00e5\u00b8\u012a": 4137, "\u00e5\u012a\u013d\u00e6\u0138\u00b0": 4138, "\u00e3\u0123\u0128": 4139, "\u00e5\u00ba\u0143": 4140, "ingle": 4141, "\u0120mo": 4142, "\u00e6\u0130\u00a2": 4143, "\u0120educ": 4144, "\u0120feel": 4145, "\u00e3\u0123\u0135": 4146, "\u00e6\u013f\u0124": 4147, "\u00d8\u00a7\u00d8\u00af": 4148, "erver": 4149, "\u0120ann": 4150, "\u00e3\u0124\u012b": 4151, "\u0120\u00d9\u0127\u00d9\u0128": 4152, "\u00e6\u00b3\u00a8\u00e6\u0126\u0131": 4153, "ottom": 4154, "github": 4155, "thing": 4156, "pecial": 4157, "\u00e6\u0122\u00a5": 4158, "ben": 4159, "\u0120config": 4160, "../../": 4161, "qual": 4162, "ini": 4163, "iled": 4164, "\u0120ess": 4165, "oney": 4166, "OL": 4167, "\u00c3\u00b4ng": 4168, "\u0120max": 4169, "\u0120cell": 4170, "\u0120study": 4171, "\u00e7\u00bd\u00aa": 4172, "\u0120account": 4173, "\u00e4\u00b9\u0130": 4174, "\u00e6\u013e\u00ba\u00e6\u0140\u0126": 4175, "\u0120()": 4176, "\u0120ele": 4177, "\u00d0\u00bd\u00d0\u00be\u00d0\u00b2": 4178, "\u00e4\u00b8\u0122\u00e6\u0143\u00a5": 4179, "ponent": 4180, "\u00e7\u00bb\u00bc": 4181, "eder": 4182, "ols": 4183, "\u00e5\u00b8\u013f": 4184, "cal": 4185, "ING": 4186, "\u00d1\u0123\u00d1\u0124\u00d0\u00b2\u00d0\u00b0": 4187, ".N": 4188, "\u0120\u00d0\u00be\u00d1\u0123": 4189, "ba": 4190, "Qu": 4191, "},": 4192, "\u00e5\u0132\u0126\u00e7\u00a7\u012f": 4193, "abor": 4194, "\u00e7\u00ba\u00b3": 4195, "\u00e4\u00bb\u00b7\u00e5\u0122\u00bc": 4196, "Service": 4197, "bed": 4198, "\u00e4\u00b8\u0122\u00e7\u00a7\u012f": 4199, "\u00e5\u0127\u00b5": 4200, "\u0120\u0120\u0120\u0120\u0120\u0120\u0120\u0120\u0120\u0120\u0120\u0120\u0120\u0120\u0120\u0120\u0120": 4201, "\u0120plus": 4202, "#include": 4203, "\u0120understand": 4204, "ja": 4205, "ormal": 4206, "\u0120able": 4207, "\u00e5\u012b\u00a7": 4208, "yl": 4209, "____": 4210, "\u00e7\u00ac\u0133": 4211, "\u0120experience": 4212, "(&": 4213, "atic": 4214, "\u0120job": 4215, "\u00d1\u0125\u00d0\u00b6": 4216, "\u0120war": 4217, "\u0120\u00d0\u00b8\u00d0\u00bb\u00d0\u00b8": 4218, "\u00d0\u00be\u00d0\u00b4\u00d0\u00b0": 4219, "(p": 4220, "\u00e8\u00bd\u00af": 4221, "\u00e8\u00bf\u0132\u00e5\u012c\u00a8": 4222, "\u00e0\u00b8": 4223, "\u0120een": 4224, "\u0120target": 4225, "\u00d0\u0136": 4226, "ias": 4227, "\u00e6\u013b\u013c": 4228, "\u00e3\u0123\u00be\u00e3\u0123\u013b": 4229, "\u0120occ": 4230, "\u0120assert": 4231, "With": 4232, "ee": 4233, "\u0120required": 4234, "\u00e8\u00af\u0139": 4235, "\u00d0\u00bb\u00d1\u0130": 4236, "\u00d0\u00b8\u00d0\u00bd\u00d0\u00b0": 4237, "================": 4238, "\u00e5\u012b\u0124": 4239, "\u00d1\u0129\u00d0\u00b0": 4240, "User": 4241, "\u0120\u00c3\u00bc": 4242, "\u0120personal": 4243, "uration": 4244, "rad": 4245, "\u0120seg": 4246, "Add": 4247, "\u00d1\u0122\u00d0\u00b0\u00d0\u00bd": 4248, "\u0120benef": 4249, "\u0120*\u010a": 4250, "pen": 4251, "ulation": 4252, "((": 4253, "\u00d1\u0122\u00d0\u00b0\u00d0\u00b7": 4254, "\u00e4\u00b8\u012f\u00e4\u00bc\u013c": 4255, "\u00e7\u0143\u0133": 4256, "App": 4257, "Or": 4258, "\u0109\u0109\u0109\u0109\u0109": 4259, "\u00e5\u0123\u013e": 4260, "ording": 4261, "\"\u00e7\u013c\u0126": 4262, "\u0120<<": 4263, "\u00e7\u0126\u00b6\u00e5\u0132\u0130": 4264, "\u00e7\u0132\u0128\u00e8\u00ae\u00ba": 4265, "\u0120Med": 4266, "\u00e9\u013a\u00bf": 4267, "pty": 4268, "\u0120\u00c4\u0133\u00e1\u00bb": 4269, "\u0120\u0120\u0120\u0120\u0120\u0120\u0120\u0120\u0120\u0120\u0120\u0120\u0120\u0120\u0120\u0120\u0120\u0120\u0120\u0120\u0120\u0120\u0120\u0120": 4270, "\u00e6\u0137\u00a3": 4271, "\u00e5\u0127\u00b8": 4272, "\u0120hard": 4273, "\u0120\u00d0\u0135": 4274, ");\u010d\u010a": 4275, "\u00cf\u0129": 4276, "fic": 4277, "\u0120something": 4278, "\"><": 4279, "PE": 4280, "ump": 4281, "\u00e7\u00a8\u012d\u00e5\u00ba\u0131": 4282, "\u0120border": 4283, "\u00e6\u00a8\u00a1\u00e5\u00bc\u0131": 4284, "aps": 4285, "\u0120tak": 4286, "\u00e4\u00bf\u013f\u00e6\u012c\u00a4": 4287, "\u0120sever": 4288, "\u0120\u00d0\u00bf\u00d0\u00be\u00d1\u0123": 4289, "amente": 4290, "\u00e8\u0138": 4291, "vious": 4292, "\u00e5\u00bc\u0122\u00e5\u0131\u0133": 4293, "\u0120\u00ce\u00b5": 4294, "\u00ef\u00bc\u012e\u00e5\u00b0\u00b1": 4295, "_N": 4296, "\u0120\u00e7\u00ac\u00ac": 4297, "\u0120\u00e7\u013c\u0126": 4298, "ories": 4299, "\u00e5\u0131\u00aa\u00e6\u013e\u012b": 4300, "\u00e6\u013e\u012b\u00e6\u0137\u012a": 4301, "\u00e6\u0136\u00af\u00e6\u012e\u0123": 4302, "cz": 4303, "\u0120full": 4304, "CH": 4305, "img": 4306, "\u00e6\u013e\u0122\u00e5\u0132\u0130": 4307, "/d": 4308, "\u0120ou": 4309, "\u0120inte": 4310, "indows": 4311, "\u0120fund": 4312, "\u0120ask": 4313, "-g": 4314, "pert": 4315, "\u0120exist": 4316, "\u00e8\u0131\u013e": 4317, "\u00e5\u00ba\u00a7": 4318, "\u00e7\u013a": 4319, "/c": 4320, "\u0120always": 4321, "ought": 4322, "\u00e6\u0135\u012f\u00e4\u00bd\u013e": 4323, "\u0120fut": 4324, "\u013di": 4325, "\u00eb\u012d": 4326, "\u00e8\u012d\u0131": 4327, "\u00e8\u00ae\u00be\u00e5\u00a4\u0129": 4328, "\u00e6\u0122\u00a7\u00e7\u013c\u0126": 4329, "pace": 4330, "\u0120v\u00c3\u0142": 4331, "pper": 4332, "uck": 4333, "\u00e8\u0143\u00a6": 4334, "\u00e5\u00ba\u0135": 4335, "head": 4336, "tn": 4337, "\u0120conc": 4338, "\u0120indust": 4339, "elle": 4340, "\u00e5\u012a\u013c": 4341, "ended": 4342, "info": 4343, "\u0120sure": 4344, "\u0120wer": 4345, "\u0120\u00d0\u00bb\u00d0\u00b8": 4346, "\u00e3\u0122\u0124\u00e8\u00bf\u013b": 4347, "\u0120Cent": 4348, "\u0120v\u00e1\u00bb": 4349, "\u0120IN": 4350, "button": 4351, "\u00e5\u00b3": 4352, "rac": 4353, "\u0120site": 4354, "\u0120No": 4355, "\u00d1\u0123\u00d1\u012e": 4356, "\u0120link": 4357, "\u0120based": 4358, "FF": 4359, "\u00e8\u0124\u012b": 4360, "\u0120possible": 4361, "ayer": 4362, "mm": 4363, "\u00e6\u0131\u0132\u00e5\u0129\u00ba": 4364, "\u00e6\u012a\u0131": 4365, "atures": 4366, "\u00c3\u00a1c": 4367, "\u0120System": 4368, "\u00e5\u00a5\u0129": 4369, "ych": 4370, "\u00e9\u00a1\u00ba": 4371, "Context": 4372, "ende": 4373, "\u00c4\u012f": 4374, "\u0120break": 4375, "\u0120dom": 4376, "\u00e4\u00ba\u0128\u00e8\u00a7\u00a3": 4377, "\u0120margin": 4378, "\u0120often": 4379, "(c": 4380, "\u0120problem": 4381, "\u00e7\u00bb\u0128\u00e8\u0125\u0140": 4382, ",\u00e6\u013a\u00af": 4383, "ention": 4384, "\u0120trad": 4385, "vec": 4386, "\u00e6\u012a\u0133\u00e7\u013c\u0126": 4387, "\u0120material": 4388, "\u0120range": 4389, "\u00e5\u0127\u00a8\u00e5\u013d\u00bd": 4390, "\u0120orig": 4391, "\u0120whe": 4392, "\u0120r\u00c3\u00a9": 4393, "\u0120since": 4394, "\u00e4\u00b9\u0127": 4395, "\u0120\u00d8\u00af\u00d8\u00b1": 4396, "SS": 4397, "rict": 4398, "\u00e8\u00b0\u012a": 4399, "\u0120Sie": 4400, "ither": 4401, "\u0120turn": 4402, "\u00e6\u0134\u0143": 4403, "aff": 4404, "All": 4405, "\u00db\u012e\u00d9\u0128": 4406, "\u00e5\u00ba\u012c": 4407, "\u0120code": 4408, "\u0120El": 4409, "\u00c6\u00a1": 4410, "\u00e7\u0136\u00a8\u00e6\u012a\u00b7": 4411, "\u00e1\u00bb\u00a7": 4412, "ieve": 4413, "\u00e4\u00ba\u00bf": 4414, "\u0120econom": 4415, "\u0120gi": 4416, "\u00e6\u0143\u012e": 4417, "\u0120display": 4418, "\u0120\u00d1\u012f\u00d1\u0124\u00d0\u00be": 4419, "\u0120\u00d0\u00be\u00d0\u00b4": 4420, "\u0120nat": 4421, "\u0120University": 4422, "\u00e4\u00b8\u0122\u00e6\u0142\u00b7": 4423, "\u00d0\u00bb\u00d0\u00b5\u00d0\u00bd": 4424, "\u0120Comm": 4425, "\u0120og": 4426, "\u0120individual": 4427, "result": 4428, "\u0120http": 4429, "////////": 4430, "\u0120\u00ce\u00bc": 4431, "\u0120Su": 4432, "\u00e9\u0129\u012c": 4433, "\u00e8\u0130\u00b7\u00e5\u00be\u0139": 4434, "\u00e5\u0143\u00a3": 4435, "\u0120prop": 4436, "\u00d0\u013e": 4437, "\u0120install": 4438, "\u00d0\u00b8\u00d1\u0129\u00d0\u00b5\u00d1\u0123\u00d0\u00ba": 4439, "\u00e9\u00bd": 4440, "\u0120treat": 4441, "\u00e5\u0127\u00b3\u00e4\u00ba\u0130": 4442, "\u0120given": 4443, "\u00e6\u0122\u013f\u00e6\u0125\u00b3": 4444, "\u00e8\u00a1\u012e\u00e4\u00b8\u013c": 4445, "\u00e6\u00b3\u0137\u00e5\u00be\u012d": 4446, "\u00e5\u0130\u0124": 4447, "\u00e8\u013b\u00bd\u00e7\u0126\u00b6": 4448, "script": 4449, "\u0120\u00d9\u0123\u00d9\u012c": 4450, "elt": 4451, "\u0109c": 4452, "oto": 4453, "\u00e5\u00a5\u0138": 4454, "ones": 4455, "ering": 4456, "\u0120team": 4457, "\u0120Ass": 4458, "(d": 4459, "rel": 4460, "\u00c3\u00a9t": 4461, "va": 4462, "\u0120page": 4463, "ige": 4464, "\u0120\u00d0\u00ba\u00d0\u00b0": 4465, "\u00e5\u0142\u0124": 4466, "');\u010a": 4467, "\u0120results": 4468, "anguage": 4469, ".pro": 4470, "\u00d0\u00b8\u00d0\u00bb\u00d0\u00b8": 4471, "\u00e6\u013e\u012b\u00e9\u013b\u0132": 4472, "\u0120appe": 4473, "\u0120aus": 4474, "\u00e8\u00ae\u00a1\u00e5\u012a\u0134": 4475, "\u00e7\u012b\u00b9\u00e5\u012a\u00ab": 4476, "\u00e9\u0123\u0129": 4477, "\u00c3\u00b9": 4478, "\u0120webs": 4479, "vo": 4480, "\u00c5\u0133": 4481, "\u00e8\u0133\u0139": 4482, "ograph": 4483, "comp": 4484, "ready": 4485, "zi": 4486, "(self": 4487, "ides": 4488, "\u00e8\u0139\u0131": 4489, ".e": 4490, "book": 4491, "ension": 4492, "\u00d1\u0123\u00d0\u00bb": 4493, "ua": 4494, "\u00e3\u0122\u012f": 4495, "\u00e6\u0127\u00a2": 4496, "Log": 4497, "\u00e5\u00be\u0139\u00e5\u012a\u00b0": 4498, "._": 4499, "\u00e1\u00ba\u0143": 4500, "\u00e3\u0124\u00af": 4501, "\u0120against": 4502, "\u0120Bl": 4503, "\u00e5\u00ae\u0139": 4504, "ilt": 4505, "\u0120ans": 4506, "\u00e7\u00ab\u0140": 4507, "ql": 4508, "\u00e6\u013f\u00be": 4509, "Mod": 4510, "\u0120eine": 4511, "Des": 4512, "\u0120bro": 4513, "\u00e9\u013b\u012a": 4514, "n't": 4515, "\u00e6\u012a\u0133\u00e5\u013d\u00bd": 4516, "\u00e6\u0124\u00a8": 4517, "Stat": 4518, "\u00e3\u0122\u012e": 4519, "indow": 4520, "\u0120sem": 4521, "oin": 4522, "\u00e5\u0132\u012a\u00e4\u00bd\u013e": 4523, "yt": 4524, "\u0120het": 4525, "\u00e3\u0122\u0124\u00e2\u0122\u013f\u010a": 4526, "\u0120little": 4527, "\u0120development": 4528, "\u00e4\u00bb\u012f": 4529, "\u00e6\u00a5\u00bc": 4530, "\u0120food": 4531, "\u0120input": 4532, "\u00e8\u00bf\u00bd": 4533, "\u00e6\u0137\u013b\u00e5\u00b8\u012a": 4534, "ican": 4535, "\u00e9\u0122\u0132": 4536, "\u00e6\u013f\u0122": 4537, "emplate": 4538, "ury": 4539, "\u0120m\u00c3\u00a1s": 4540, "\u00d9\u0128\u00d8\u00af": 4541, "Event": 4542, "sk": 4543, "onse": 4544, "plement": 4545, "\u00e6\u0136\u00bf\u00e6\u00b2\u00bb": 4546, "ita": 4547, "\u00e6\u00b9\u0138": 4548, "\u0120lot": 4549, "\u0120big": 4550, "uring": 4551, "\u00e9\u00a6\u0128": 4552, "\u00e7\u0138\u00ab": 4553, "\u0120height": 4554, "\u0120mot": 4555, "\u00e5\u0131\u00ab": 4556, "\u0120working": 4557, "dep": 4558, "Index": 4559, "\u00e5\u0128\u00b7": 4560, "\u00e8\u00b4\u00a3\u00e4\u00bb\u00bb": 4561, "\u0120l\u00c3\u0142": 4562, "\u0120Get": 4563, "lient": 4564, "\u0120address": 4565, "\u0120Intern": 4566, "\u00e9\u0122\u0122": 4567, "lib": 4568, "%,": 4569, "\u0120fore": 4570, "\u00e6\u013e\u012b\u00e5\u0127\u00b3": 4571, "\u0120elect": 4572, "\u00e8\u00aa": 4573, "\u00e6\u012e\u00a5": 4574, "\u00e5\u00bd\u00a2\u00e5\u00bc\u0131": 4575, "\u0120document": 4576, "earch": 4577, ",\u00e4\u00b8\u0122": 4578, "':": 4579, "\u00e4\u00be\u00a7": 4580, "start": 4581, "\u00e8\u00ae\u00a8": 4582, "\u00e4\u00b8\u00b0": 4583, "irt": 4584, "yd": 4585, "agn": 4586, "\u0120mom": 4587, "\u00e7\u00a7\u0133\u00e6\u012c\u0122": 4588, "\u00e6\u013e\u012d": 4589, "\u0120family": 4590, "\u00e5\u00a5\u0139": 4591, "list": 4592, "\u00e5\u00bd\u0134": 4593, "\u00e4\u00bc\u0142\u00e7\u00bb\u0141": 4594, "\u0120/*": 4595, "\u0120record": 4596, "\u00e5\u013d\u00b0": 4597, "\u00e7\u00ac\u0136": 4598, "\u0120area": 4599, "')\u010a": 4600, "\u00e5\u012e\u0139\u00e4\u00ba\u00ac": 4601, "box": 4602, "\u00e7\u00bb\u0135\u00e5\u0132\u012a": 4603, "\u00e7\u00a5\u00a8": 4604, "\u00e7\u00a7\u00af\u00e6\u0140\u0123": 4605, "\u00e8\u0123\u013c": 4606, "ille": 4607, "\u0120Gr": 4608, "(),": 4609, "\"]": 4610, "aper": 4611, "\u0120div": 4612, "\u00e4\u00ba\u00ba\u00e4\u00bb\u00ac": 4613, "\u0120dest": 4614, "\u00ce\u00b9\u00ce\u00ba": 4615, "md": 4616, "create": 4617, "\u00d0\u00b3\u00d0\u00b0": 4618, "\u00d0\u00ba\u00d1\u0124": 4619, "\u00ef\u00bc\u012b\u00ef\u00bc\u012e": 4620, "zt": 4621, "\u00e5\u00b0\u0123": 4622, "\u0120Qu": 4623, "sel": 4624, "\u00e6\u012d\u013d": 4625, "acy": 4626, "\u0120block": 4627, "\u0120give": 4628, "\u0120special": 4629, "Int": 4630, "\u0120\u00d0\u00b4\u00d0\u00be": 4631, "\u00c3\u00b3w": 4632, "thers": 4633, "\u00e7\u0129": 4634, "\u00e5\u012f\u00b1": 4635, "\u00e8\u013b\u0133": 4636, "aces": 4637, "\u0120Ver": 4638, "\u0120sus": 4639, "\u00e7\u00bb\u0131\u00e8\u0132\u00a5": 4640, "\u00e5\u0130\u0141\u00e5\u013d\u0142": 4641, "ilter": 4642, "\u00e4\u00bb\u00a5\u00e4\u00b8\u012c": 4643, "\u00e6\u0139\u00a2": 4644, "\u00e5\u013f\u0132": 4645, "\u00e6\u012d\u00bf": 4646, "\u00e8\u0126\u012b": 4647, "\u0120\u0120\u0120\u0120\u0120\u0120\u0120\u0120\u0120\u0120\u0120\u0120\u0120\u0120\u0120\u0120\u0120\u0120\u0120\u0120\u0120\u0120\u0120\u0120\u0120\u0120\u0120\u0120\u0120\u0120\u0120": 4648, "\u00e3\u0125\u00ab": 4649, "\u00e3\u0122\u0124\u00e4\u00bd\u0128": 4650, "aim": 4651, "\u00c3\u00b8": 4652, "\u00d1\u0125\u00d0\u00bc": 4653, "\u0120version": 4654, "\u0120table": 4655, "image": 4656, "\u0120light": 4657, "\u00e8\u00a1\u00a8\u00e7\u0130\u00b0": 4658, "\u0120cult": 4659, "\u00e2\u0122\u0136\u00e2\u0122\u0136": 4660, "You": 4661, "\u0120focus": 4662, "\u00e7\u0136\u00b0": 4663, "\u0120specific": 4664, "ills": 4665, "\u00e6\u012b\u00a7\u00e8\u00a1\u012e": 4666, "\u0120title": 4667, "\u00e8\u012b\u00ba\u00e6\u013e\u00af": 4668, "\u0120course": 4669, "\u00e6\u013f\u0132\u00e6\u0138\u013b": 4670, "\u00e6\u013a\u00af\u00e5\u0132\u00a6": 4671, "\u00e5\u00ae\u012a": 4672, "\u00e6\u00b4\u00be": 4673, "\u00e9\u013b\u0126": 4674, "ably": 4675, "\u00e5\u0127\u00b0": 4676, "\u0120message": 4677, "uth": 4678, "\u0120options": 4679, "\u00e5\u00b9\u00b4\u00e7\u013c\u0126": 4680, "\u0120response": 4681, "ora": 4682, "\u00e6\u012b\u00a9": 4683, "(n": 4684, "/p": 4685, "ched": 4686, "\u0120Des": 4687, "\u00ef\u00bc\u013c\u010a": 4688, "ids": 4689, "\u0120af": 4690, "\u0120\u00d0\u00bf\u00d1\u0122\u00d0\u00b5": 4691, "\u00ef\u00bc\u012e\u00e4\u00bd\u0142": 4692, "\u00e3\u0123\u0131": 4693, "\u0120\u00e5\u013e\u00a8": 4694, "\u0120auch": 4695, "\u00e6\u00af\u013d": 4696, "\u0120**": 4697, "\u0120means": 4698, "_B": 4699, "\u00d8\u00b6": 4700, "\u00e8\u00af\u00af": 4701, "unk": 4702, "/*": 4703, "ama": 4704, "\u00e8\u00b5\u0126\u00e6\u0138\u013b": 4705, "\u0120\u00d0\u00a3": 4706, "\u0120bir": 4707, "\u00e4\u00b8\u0122\u00e8\u00b5\u00b7": 4708, "\u0120\u00d0\u00b2\u00d0\u00be\u00d0\u00b7": 4709, "\u00e7\u00a9\u00bf": 4710, "Exception": 4711, "\u00cf\u012f": 4712, "\u0120pri": 4713, "\u00e6\u0137\u012a\u00e6\u0140\u013e": 4714, "ips": 4715, "\u00d0\u00be\u00d0\u00bb\u00d1\u012e\u00d0\u00ba\u00d0\u00be": 4716, "\u00e5\u00bd\u00a9": 4717, "\u0120\u00d8\u00ae": 4718, "\u0120License": 4719, "\u0120government": 4720, "\u00e7\u00bb\u00bc\u00e5\u0132\u012a": 4721, "\u00e7\u013e\u012d\u00e5\u012a\u00b0": 4722, "\u00d0\u00b5\u00d0\u00bb\u00d0\u00b8": 4723, "\u0120abs": 4724, "\u0120teach": 4725, "\u00e7\u013c\u0126\u00e4\u00ba\u012d": 4726, "reate": 4727, "\u0120comb": 4728, "\u0120\u00d1\u0123\u00d0\u00b0\u00d0\u00bc": 4729, "ibility": 4730, "\u0120particular": 4731, "sc": 4732, "Val": 4733, "\u00c3\u00b6n": 4734, "-h": 4735, "}}": 4736, "\u0120days": 4737, "\u00e7\u013f\u00a3": 4738, "EL": 4739, "\u0120Eng": 4740, "\u0120source": 4741, "\u00e3\u0125\u00aa": 4742, "Node": 4743, "\u0120util": 4744, "\u0120ens": 4745, "define": 4746, "\u00e5\u00aa": 4747, "\u00c3\u00a1t": 4748, "acc": 4749, "\u0120lik": 4750, "\u00e4\u00bb\u00b7\u00e6\u0142\u00bc": 4751, "_h": 4752, "\u00e8\u0135": 4753, "\u0120meas": 4754, "ungen": 4755, ",\u00e4\u00bb\u00a5": 4756, "\u0120respons": 4757, "\u0120)\u010a": 4758, "\u00e6\u013e\u012d\u00e5\u0131\u012d": 4759, "\u0120\u00c3\u00a8": 4760, "\u00e6\u00b7\u00b7": 4761, "\u0120called": 4762, "\u00e4\u00b8\u012f\u00e6\u0138\u0143": 4763, "\u0120four": 4764, "des": 4765, "\u00d9\u012a\u00d9\u0126": 4766, "\u0120large": 4767, "\u0120signific": 4768, "Field": 4769, "ales": 4770, "\u00e3\u0123\u0137": 4771, "\u00e1\u00ba\u00a7": 4772, "\u0120dig": 4773, "ured": 4774, "\u00d0\u00b7\u00d0\u00b0": 4775, "\u00e5\u012c\u00b3\u00e5\u012c\u00a8": 4776, "\u0120done": 4777, "\u00e5\u0131\u00aa\u00e6\u013a\u00af": 4778, "\u00e8\u012e\u0125\u00e5\u013d\u00b4": 4779, "\u00e7\u013b\u00bb": 4780, "\u00d1\u0123\u00d1\u0124\u00d0\u00b2\u00d0\u00be": 4781, "\u0120/>\u010a": 4782, "\u00e5\u0132\u00af": 4783, "\u00e7\u012c\u00af": 4784, "\u00e9\u0123\u00bf": 4785, "max": 4786, "\u0120...": 4787, "\u0120mean": 4788, "\u00e5\u00af\u00bc\u00e8\u0129\u00b4": 4789, "\u00e7\u012c\u00b6\u00e6\u0122\u0123": 4790, "\u0120src": 4791, "\u00d8\u00b0": 4792, "\u0120risk": 4793, ".T": 4794, "\u0120human": 4795, "\u0120far": 4796, "\u0120never": 4797, "EM": 4798, "\u00e7\u0136\u00b3": 4799, "\u00e5\u012e\u00bb\u00e9\u013b\u00a2": 4800, "\u00e8\u012d\u00a6": 4801, "\u00d0\u00b8\u00d0\u00bb\u00d1\u012e": 4802, "\u00e6\u00a3\u0122\u00e6\u0141\u00a5": 4803, "\u00e9\u013f\u0142": 4804, "And": 4805, "\u00e5\u012a\u013a": 4806, "\u00e7\u0136\u013c\u00e8\u0129\u00b3": 4807, "mb": 4808, "\u0120Go": 4809, "\u0120web": 4810, "\u0120determ": 4811, "ators": 4812, "\u0120\u00d0\u00b1\u00d1\u0125\u00d0\u00b4": 4813, "\u0120meet": 4814, "\u0120needs": 4815, "At": 4816, "\u0120});\u010a": 4817, "\u00e5\u012f\u00b7": 4818, "from": 4819, "\u0120Br": 4820, "\u0120Pol": 4821, "check": 4822, "orage": 4823, "\u0120certain": 4824, "\u00e8\u00a7\u012b\u00e5\u00be\u0139": 4825, "\u0120sz": 4826, "\u0120says": 4827, ",\u00e6\u012a\u0133\u00e4\u00bb\u00ac": 4828, "ores": 4829, "\u00e4\u00ba\u012a": 4830, "OD": 4831, "Out": 4832, "\u00e7\u00bb\u00bf": 4833, "ges": 4834, "\u00c3\u00a4r": 4835, "\u0120cover": 4836, "uation": 4837, "sch": 4838, "Man": 4839, "\u0120Reg": 4840, "heck": 4841, "\u00e6\u013a\u00be\u00e7\u00a4\u00ba": 4842, "\u00e6\u0131\u0132\u00e5\u012f\u0129": 4843, "\u00e6\u0138\u00b0\u00e7\u013c\u0126": 4844, "\u0120When": 4845, "\u0120c\u00c3\u00b3": 4846, "\u0120making": 4847, "\u00d9\u012c\u00d9\u0128": 4848, "\u0120polit": 4849, "lick": 4850, "\u0120complet": 4851, "\u00e8\u00b4\u00b5": 4852, "icial": 4853, "ison": 4854, "\u0120Inst": 4855, "gress": 4856, "ribute": 4857, "\u00d0\u00ba\u00d0\u00b5": 4858, "ored": 4859, "\u0120At": 4860, "\u00e4\u00bb\u00bb\u00e4\u00bd\u0137": 4861, "\u00e7\u00a9\u00ba\u00e9\u0139\u00b4": 4862, "\u00e9\u0139\u00bb": 4863, "\u0120environment": 4864, "\u00e7\u0130\u00b0\u00e4\u00bb\u00a3": 4865, "\u00e5\u00b9\u00b3\u00e5\u0131\u00b0": 4866, "eta": 4867, "-in": 4868, "\u0120percent": 4869, "\u00ef\u00bc\u012e\u00e2\u0122\u013e": 4870, "\u00e8\u00b7\u013f": 4871, "\u0120neg": 4872, "\u0120vers": 4873, "Of": 4874, "\u00e8\u00b7\u00b5": 4875, "\u0120cir": 4876, "\u0120context": 4877, "\u00e8\u00bf\u0129\u00e7\u00a8\u012d\u00e4\u00b8\u0143": 4878, "\u0120community": 4879, "ULL": 4880, "\u00e6\u012b\u013a": 4881, "creen": 4882, "\u00e6\u013f\u00a5\u00e8\u00af\u00b4": 4883, "\u00e2\u0122\u013f\u00e7\u013c\u0126": 4884, "roller": 4885, "pi": 4886, "\u0120inc": 4887, "\u0120sci": 4888, "uer": 4889, "ario": 4890, "ayout": 4891, "\u00e6\u012a\u0132\u00e5\u012c\u0141": 4892, ".\u00e2\u0122\u013f": 4893, "roid": 4894, "Size": 4895, "\u0120Car": 4896, "EX": 4897, "\u00e7\u0136\u00b2": 4898, "\u00e5\u0122\u0141": 4899, "way": 4900, "ohn": 4901, "\u0120total": 4902, "\u00ce\u00b4": 4903, "Be": 4904, "\u00e9\u00a1\u00be": 4905, "\u00e7\u012e\u00ae": 4906, "\u00e9\u0134\u0141": 4907, "\u00d0\u00b0\u00d1\u0124\u00d0\u00b5\u00d0\u00bb\u00d1\u012e": 4908, "\u0120\u00d9\u012c": 4909, "hel": 4910, "iem": 4911, "\u00e3\u0123\u012f": 4912, "\u00e5\u0127\u00b7\u00e4\u00bd\u0135": 4913, "\u00e9\u00a2\u0128\u00e5\u00af\u00bc": 4914, "\u00e8\u00a1\u00a3": 4915, "\u0120base": 4916, "urther": 4917, "\u0120hig": 4918, "\u00e7\u013c\u0126\u00e5\u00a4\u00a7": 4919, "\u0120common": 4920, "\u00e9\u013e\u0122\u00e6\u00b1\u0124": 4921, "\u00e5\u00b8\u012e\u00e6\u013e\u013d": 4922, "\u00e5\u00be\u0126": 4923, "\u00d0\u00b2\u00d0\u00b5\u00d1\u0124": 4924, "\u00d0\u00b4\u00d0\u00b5\u00d0\u00bb": 4925, "Map": 4926, "\u00ef\u00bc\u012e\u00e5\u0127\u00b6": 4927, "Is": 4928, "\u0120seem": 4929, "\u00d0\u00bc\u00d0\u00b5": 4930, "Response": 4931, "apt": 4932, "Class": 4933, "\u00e3\u0123\u0139\u00e3\u0123\u00a6": 4934, ".add": 4935, "\u00d1\u0128\u00d0\u00b8\u00d1\u0131": 4936, "\u00e5\u00ae\u0123": 4937, "\u0120major": 4938, "ysis": 4939, "\u0120low": 4940, "\u0120\u00d1\u0122\u00d0\u00b0\u00d0\u00b1\u00d0\u00be\u00d1\u0124": 4941, "Message": 4942, "\u00e2\u0122\u012e": 4943, "\u0120vous": 4944, "\u00e5\u00a4\u013e": 4945, "web": 4946, "\u0120__": 4947, "\u0120);\u010a": 4948, "\u0120short": 4949, "\u00d0\u00bd\u00d0\u00be\u00d0\u00bc": 4950, "outh": 4951, "\u0120deb": 4952, "\u0120become": 4953, "\u00e8\u0126\u00b1": 4954, ".R": 4955, "fect": 4956, "\u00d1\u0124\u00d0\u00be\u00d1\u0122": 4957, "\u00e7\u00bb\u012f": 4958, "\u0120Ab": 4959, "\u00d0\u00b0\u00d0\u00bc\u00d0\u00b8": 4960, "\u00ce\u00b5\u00ce\u00b9": 4961, "\u0120tax": 4962, "\u00e6\u013f\u0141": 4963, "\u00e5\u0137\u012c": 4964, "default": 4965, "\u00d0\u00be\u00d1\u0131": 4966, "\u00e5\u00ae\u012e\u00e5\u0127\u00a8": 4967, "ogn": 4968, "\u0120won": 4969, "\u00e6\u0130\u012a": 4970, "nection": 4971, "\u00e4\u00bd\u0135\u00e7\u00b3\u00bb": 4972, "\u0120already": 4973, "\u00e7\u0128\u0141": 4974, "\u0120kind": 4975, "\u0109f": 4976, "\u0120uns": 4977, "\u00e8\u012a\u00aa": 4978, "\u00e5\u00ae\u0140\u00e6\u0138\u00bd": 4979, "\u00d1\u0125\u00d0\u00b1": 4980, "_w": 4981, "\u0120\u00d8\u0143": 4982, "\u0120om": 4983, "\u0120Euro": 4984, "\u0120\u00d1\u0122\u00d1\u0125": 4985, "\u00e6\u0136\u00bb": 4986, "\u00ef\u00bc\u012e\u00e4\u00bb\u0130": 4987, "\u00e3\u0125\u00a9": 4988, "\u00ef\u00bc\u012e\u00e5\u00a6\u0124": 4989, "\u00e6\u00b8\u0132": 4990, "\u0120These": 4991, "\u0120times": 4992, "\u00d9\u012a\u00d8\u00af": 4993, "\u0120gra": 4994, "\u00d0\u0137": 4995, "\u0120\u00d1\u0124\u00d0\u00b5": 4996, "\u00e5\u0128\u00b3\u00e5\u00ae\u013c": 4997, "\u00d9\u012a\u00d9\u0128": 4998, "\u00e6\u0140\u00b6": 4999, "Inst": 5000, "\u0120invol": 5001, "\u00d1\u012f": 5002, "\u0120th\u00e1\u00bb": 5003, "n\u00c3\u0143": 5004, "\u00d1\u0130\u00d1\u012b": 5005, "\u00e8\u00be\u00be\u00e5\u012a\u00b0": 5006, "gs": 5007, "\u00d0\u00b2\u00d0\u00b5\u00d1\u0122": 5008, "ocation": 5009, "(b": 5010, "true": 5011, "\u00e4\u00bd\u0142\u00e7\u013c\u0126": 5012, "\u00d0\u00b0\u00d0\u00bb\u00d0\u00b0": 5013, "\u0120fri": 5014, "\u0120necess": 5015, "\u00e5\u0138\u013e\u00e6\u00ac\u00a2": 5016, "\u0120mind": 5017, "igned": 5018, "Up": 5019, "Result": 5020, "ication": 5021, "ising": 5022, "\u00d1\u0123\u00d0\u00bb\u00d0\u00b8": 5023, "rect": 5024, "\u00e7\u00a1\u00ae\u00e5\u00ae\u013c": 5025, "\u00e4\u00b8\u013c\u00e5\u012c\u00a1": 5026, "\u00e8\u0128\u013e": 5027, "\u00e7\u00a7\u0122": 5028, "idence": 5029, "\u0120Im": 5030, "\u0120period": 5031, "uj": 5032, ".B": 5033, "Not": 5034, "\u0120als": 5035, "\u0120air": 5036, "\u00e4\u00bd\u013e\u00e5\u0135\u0123": 5037, "dis": 5038, "version": 5039, "\u00d0\u00b0\u00d0\u00bd\u00d0\u00b8\u00d0\u00b5": 5040, "\u0120pa": 5041, "\u00e5\u012c\u0142\u00e5\u00bc\u00ba": 5042, "uz": 5043, "ummary": 5044, "\u00e6\u0139\u00b6\u00e4\u00bb\u00a3": 5045, "\u0120\"$": 5046, "!--": 5047, "\u00d0\u00b8\u00d0\u00b2\u00d0\u00b0": 5048, "ites": 5049, "\u00e7\u00b2\u012b": 5050, "\u0120\u00d8\u00a8\u00d9\u0129": 5051, "\u0120action": 5052, "\u00e1\u0125": 5053, "\u0120dies": 5054, "\"\"": 5055, "\u0120sent": 5056, "\u00e6\u0139\u00a5\u00e6\u013e\u00ac": 5057, "\u0120Er": 5058, "ised": 5059, "\u0120money": 5060, "\u0120author": 5061, "\u00e6\u00b1\u00bd": 5062, "aring": 5063, "\u0120camp": 5064, "\u00e8\u00bf\u013d\u00e4\u00b8\u0122\u00e6\u0143\u00a5": 5065, "\u0120index": 5066, "ii": 5067, "\u00e5\u013d\u0142\u00e7\u00b4\u0142": 5068, "ires": 5069, "minist": 5070, "\u0120param": 5071, "\u0120\u00c2\u00bb": 5072, "\u00e6\u0131\u0131": 5073, "\u00e5\u00bb\u00ba\u00e7\u0143\u0133": 5074, "\u00e5\u00a2\u0140\u00e9\u0137\u00bf": 5075, ",\u00e5\u00b0\u00b1": 5076, "idd": 5077, "\u00e7\u0133": 5078, "\u00e7\u00b1\u00bb\u00e5\u0140\u012d": 5079, "\u0120particip": 5080, "iff": 5081, "\u00e6\u00af\u0137": 5082, "\u00e6\u00b0\u00b8": 5083, "eters": 5084, "\u00e7\u00a4\u00bc": 5085, "my": 5086, "\u00e4\u00bd\u013d": 5087, "\u0120phys": 5088, "lished": 5089, "\u00e7\u0130\u00a9": 5090, "\u00e8\u00af\u012c": 5091, "\u0120God": 5092, "\u00e9\u013d\u00a8": 5093, "\u0120\u010a\u010a": 5094, "valid": 5095, "Code": 5096, "\u0120Do": 5097, "\u0120bar": 5098, "\u00e5\u00b7\u00a5\u00e4\u00b8\u013c": 5099, "\u00e8\u00bd\u00ae": 5100, "\u00e6\u013a\u00af\u00e5\u013e\u00a8": 5101, "ls": 5102, "\u0120client": 5103, "\u00e4\u00b8\u0122\u00e6\u00ac\u00a1": 5104, "\u00d1\u0122\u00d1\u0125\u00d0\u00b3": 5105, "\u00e6\u0138\u0139": 5106, "\u00e6\u00b8\u00af": 5107, "\u00e6\u0136\u00b9\u00e9\u013f\u00a9": 5108, "\u00e5\u012e\u00ba\u00e5\u0141\u0141": 5109, "\u00e5\u00bb\u00b6": 5110, "\u0120Can": 5111, "\u00e6\u0126\u0131\u00e4\u00b9\u012b": 5112, "\u0120Me": 5113, "mo": 5114, "\u00c3\u0143t": 5115, "\u00e8\u00b0\u00a2": 5116, "std": 5117, "\u00e7\u013c\u0129": 5118, "\u0120protect": 5119, "ista": 5120, "\u0120What": 5121, "uffer": 5122, "alf": 5123, "Array": 5124, "orld": 5125, "\u0120nie": 5126, "What": 5127, "imal": 5128, "\u00e8\u013b\u013c": 5129, "La": 5130, "Hand": 5131, "\u0120begin": 5132, "abled": 5133, "\u0120\u00d0\u00bb\u00d1\u0130": 5134, "\u00e6\u0137\u0133": 5135, "\u0120network": 5136, "\u0120past": 5137, "\u00e7\u00ac\u00ac\u00e4\u00b8\u012b": 5138, "\u00d0\u00b0\u00d1\u0122\u00d0\u00b0": 5139, "\u0120contact": 5140, "\u0120until": 5141, "\u0120crit": 5142, "\u00e7\u00b3\u0138": 5143, "ette": 5144, "\u0120due": 5145, "\u0120comput": 5146, "mi": 5147, "\u00e9\u013c\u0131\u00e7\u013f\u0122": 5148, "\u0120(\u010a": 5149, "\u00d8\u00a7\u00d8\u00a8": 5150, "using": 5151, "\u00e6\u013d\u00b4\u00e5\u00a4\u013c": 5152, "\u00e3\u0124\u00a2": 5153, "\u00e7\u00a8\u012d\u00e5\u00ba\u00a6": 5154, "\u0120image": 5155, "PI": 5156, "\u00d1\u0122\u00d1\u0131": 5157, "\u0120why": 5158, "\u00e7\u0138\u00be": 5159, "\u0120represent": 5160, "---": 5161, "\u0120website": 5162, "\u00e5\u00a8\u0123": 5163, "\u00d0\u00b4\u00d0\u00b5": 5164, "\u00e8\u00ae\u00bf": 5165, "\u0120ener": 5166, "\u00e6\u00b6\u012a\u00e8\u00b4\u00b9": 5167, "orth": 5168, "atform": 5169, "`\u010a": 5170, "\u0120exc": 5171, "gl": 5172, "################": 5173, "olean": 5174, "ements": 5175, "oper": 5176, "\u0120cond": 5177, "_r": 5178, "\u0120\u00d0\u00bf\u00d0\u00b5\u00d1\u0122\u00d0\u00b5": 5179, "\u00e7\u0138\u0133": 5180, "\u0120She": 5181, "\u0120whether": 5182, "\u0120pers": 5183, "\u0120https": 5184, "\u00e9\u0122\u0131": 5185, "pportun": 5186, "\u0120dire": 5187, "atter": 5188, "\u0120pain": 5189, "\u00e5\u00a4\u00ae": 5190, "\u0120That": 5191, "\u0120bit": 5192, "odes": 5193, "\u00e6\u0139\u0142\u00e6\u00b3\u0137": 5194, "\u00e7\u00af\u0129": 5195, "\u00e4\u00bb\u00a5\u00e4\u00b8\u012d": 5196, "\u00d0\u00b0\u00d1\u012a": 5197, ",\u00e5\u00af\u00b9": 5198, "ius": 5199, "\u00e6\u013a\u0130\u00e6\u013a\u00be": 5200, "\u00e6\u00b4\u0139": 5201, "\u00e2\u0122\u013f\u00e3\u0122\u0124": 5202, "\u0120discuss": 5203, "\u0120descri": 5204, "\u00e9\u00a3\u0130\u00e9\u013b\u00a9": 5205, "style": 5206, "\u00e8\u00be\u0133": 5207, "\u0120question": 5208, "\u0120tre": 5209, "sub": 5210, "\u00e9\u013a\u00b6\u00e6\u00ae\u00b5": 5211, "function": 5212, "\u00ec\u0139": 5213, "\u00e3\u0123\u0124": 5214, "lev": 5215, "\u0120tu": 5216, "\u00e6\u0130\u00aa": 5217, "\u00e8\u013d\u012d": 5218, "\u0120products": 5219, "\u00d0\u00b7\u00d1\u012d": 5220, "\u0120However": 5221, "\u00d1\u0122\u00d0\u00b5\u00d0\u00bc": 5222, "ruction": 5223, ",\u00e4\u00b8\u00ba": 5224, "\u00ef\u00bc\u0141\u010a": 5225, "\u00c6\u00b0\u00e1\u00bb\u013f": 5226, "\u0120compon": 5227, "\u00ef\u00bc\u012e\u00e5\u00af\u00b9": 5228, "\u0120future": 5229, "\u0120cou": 5230, "uel": 5231, "resh": 5232, "sole": 5233, "\u0120entre": 5234, "nie": 5235, "\u0120AN": 5236, "\u00e5\u00b4": 5237, "curity": 5238, "\u00e4\u00ba\u00ae": 5239, "\u00e7\u0136\u00a8\u00e4\u00ba\u0130": 5240, "\u00e7\u013d\u0138": 5241, "\u0120center": 5242, "\u00d0\u00b8\u00d1\u0124\u00d0\u00b5": 5243, "\u0120software": 5244, "\u0120visit": 5245, "\u00e2\u0122\u013bve": 5246, "\u0120arr": 5247, "\u0120others": 5248, "i\u00e1\u00ba\u00bf": 5249, "\u0120cur": 5250, "\u00e5\u00ae\u00ab": 5251, "link": 5252, "Def": 5253, "[\"": 5254, "ector": 5255, "\u00e7\u00bb\u00a9": 5256, "uments": 5257, "\u0120amount": 5258, "\u0120several": 5259, "\u0120\u00d1\u0123\u00d0\u00b5": 5260, "\u00e5\u0129\u00ba\u00e7\u012b\u012a": 5261, "\u00e9\u013e\u00b2": 5262, "_re": 5263, "\u0120Christ": 5264, "\u0120Fl": 5265, "\u00ef\u00bc\u012e\u00e5\u0131\u00af": 5266, "\u0120\u00d0\u0139": 5267, "());\u010a": 5268, "\u0120mi": 5269, "\u00e4\u00b8\u013f": 5270, "\u00e6\u013a\u00af\u00e4\u00b8\u0122\u00e4\u00b8\u00aa": 5271, "\u00e8\u00ae\u00be\u00e7\u00bd\u00ae": 5272, "\u0120country": 5273, "\u00c6\u00b0\u00e1\u00bb\u00a3": 5274, "\u00e8\u00bf\u013d\u00e5\u0127\u00a5": 5275, "\u0120\u00d0\u0137": 5276, "\u00e8\u0126\u013c": 5277, "(this": 5278, "\u00e9\u0122\u0142\u00e6\u012a\u0132": 5279, "raft": 5280, "\u00e6\u00b2\u013b": 5281, "\u00e5\u0131\u0124\u00e4\u00b8\u0130": 5282, ".r": 5283, "\u0120\u00d0\u00bf\u00d0\u00b5\u00d1\u0122": 5284, "-size": 5285, "\u00e0\u00ae": 5286, "inary": 5287, "\u00e5\u012a\u0128\u00e5\u012a\u00ab": 5288, "\u00e5\u0122\u0134": 5289, "\u00e5\u0129\u00ba\u00e6\u013f\u00a5": 5290, "\u00e8\u00ae\u00b8\u00e5\u00a4\u013c": 5291, "\u0120*/": 5292, "\u0120associ": 5293, "\u00e5\u00a9\u013c": 5294, "\u0120got": 5295, "\u00e6\u0131\u00a1": 5296, "\u0120members": 5297, "\u00e9\u0129\u012f\u00e7\u0124\u00b9": 5298, "\u00e7\u00bc\u00a9": 5299, "\u00e5\u0127\u00b3\u00e9\u0136\u00ae": 5300, "\u00e4\u00b8\u00bd": 5301, "\u00e9\u00a1\u00b5": 5302, "\u0120Min": 5303, "\u00e5\u00af\u00b9\u00e8\u00b1\u00a1": 5304, "\u00e5\u00a4\u0131": 5305, "endo": 5306, "\u0120space": 5307, "\u00e5\u00b8\u00ae\u00e5\u012c\u00a9": 5308, "rows": 5309, "\u00d0\u00b8\u00d1\u0122": 5310, "Pr": 5311, "\u00e8\u00a1\u0139": 5312, "ternal": 5313, "\u0120side": 5314, "soft": 5315, "\u0120===": 5316, "\u00d0\u00bf\u00d0\u00bb": 5317, "imate": 5318, "\u00e8\u00bf\u013b\u00e9\u0129\u012e": 5319, "-n": 5320, "\u0120;": 5321, "\u0120least": 5322, "it\u00c3\u00a9": 5323, "point": 5324, "\u0120today": 5325, "\u00e6\u00b2\u012b": 5326, "side": 5327, "\u00d0\u00be\u00d0\u00bb\u00d1\u012e\u00d0\u00b7": 5328, ".F": 5329, "\u00e5\u00ae\u0140\u00e8\u00b7\u00b5": 5330, "perties": 5331, ".log": 5332, "\u00e6\u00ac\u00a7": 5333, "CC": 5334, "title": 5335, "\u0120women": 5336, "\u00e5\u00ae\u00b9\u00e6\u013a\u0135": 5337, "\u0120+=": 5338, "\u00e9\u013b\u0128": 5339, "\u00e5\u00b0\u013c": 5340, "\u00e5\u013e\u0128": 5341, "\u00e6\u0130\u012e": 5342, "uid": 5343, "\u0120/**\u010a": 5344, "\u00a4\u0132": 5345, "\u00e1\u00ba\u00a5t": 5346, "\u0120vot": 5347, "\u0120distribut": 5348, "\u0120\u00d0\u00bd\u00d0\u00be": 5349, "\u00e6\u012b\u012f\u00e8\u0125\u00bd": 5350, "yth": 5351, "gt": 5352, "ye": 5353, "\u00e5\u0131\u0124\u00e5\u012c\u0142": 5354, "\u00e7\u012b\u013d": 5355, "_type": 5356, "\u0120game": 5357, "ancial": 5358, "\u0120either": 5359, "\u0120above": 5360, "\u00e7\u00ab\u00a5": 5361, "\u0109m": 5362, "formation": 5363, "\u0120having": 5364, "\u00e4\u00b8\u012c\u00e6\u00b5\u00b7": 5365, "\u00e7\u0124\u0130": 5366, "\u00d8\u00ab": 5367, "\u0120kom": 5368, "\u00e7\u00bb\u00a7\u00e7\u00bb\u0143": 5369, "\u00e7\u00bc\u0135": 5370, "\u0120intern": 5371, "\u0120\u00d1\u0123\u00d0\u00b2\u00d0\u00be": 5372, "Ad": 5373, "\u0120rad": 5374, "\u00e5\u012f\u0138": 5375, "\u00e9\u0123\u0139": 5376, "\u0120mach": 5377, "\u0120perm": 5378, "\u0120si\u00c4\u013b": 5379, "struct": 5380, "\u0120prob": 5381, "ney": 5382, "\u0120od": 5383, "\u00e8\u0125\u013e": 5384, "\u0120larg": 5385, "\u0120copy": 5386, "\u010a\u010a\u010a": 5387, "\u0120pi": 5388, "\u00e5\u0129\u00bd": 5389, "\u00d0\u00bd\u00d1\u0125\u00d1\u0130": 5390, "\u0120padding": 5391, "status": 5392, "ilities": 5393, "\u00e3\u0122\u0124\u00e6\u012a\u0133": 5394, "\u00d0\u00b2\u00d0\u00b8": 5395, "artment": 5396, "\u00e6\u012d\u00a5": 5397, "\u00e9\u00a2\u0128\u00e5\u0141\u0141": 5398, "ights": 5399, "\u0120\u00d9\u0124": 5400, "nb": 5401, "\u00e5\u00b0\u00bc": 5402, "lin": 5403, "\u0120values": 5404, "\u0120fn": 5405, "enu": 5406, "ley": 5407, "No": 5408, "\u0120opportun": 5409, "\u00e5\u00ae\u0140\u00e9\u00aa\u012e": 5410, "\u0120\u00d8\u00ac": 5411, "ival": 5412, "\u00e9\u0135\u00b6\u00e8\u00a1\u012e": 5413, "\u0120talk": 5414, "ony": 5415, "\u00d9\u0129\u00d8\u00a7": 5416, "]}": 5417, "\u00e7\u0143\u00be": 5418, "\u00e9\u0129\u0133\u00e8\u0140\u012f": 5419, "\u0120alt": 5420, "\u0120t\u00e1\u00bb": 5421, "\u00e5\u0141\u00b9\u00e5\u0127\u00bb": 5422, "\u0120energy": 5423, "bol": 5424, ",\u00e4\u00bb\u0130": 5425, "\u00cf\u0128": 5426, "Color": 5427, "\u0120bring": 5428, "osp": 5429, "!!": 5430, "\u00c3\u00bcn": 5431, "\u0120compet": 5432, "\u0120fun": 5433, "height": 5434, "\u0120echo": 5435, "hol": 5436, "\u00e5\u0127\u00a8\u00e9\u013f\u00a2": 5437, "\u0120ut": 5438, "\u00e5\u00b7\u013f": 5439, "mat": 5440, "\u0120compan": 5441, "\u0120moment": 5442, "oute": 5443, "\u0120Add": 5444, "\u00d0\u00bd\u00d0\u00b8\u00d0\u00bc": 5445, "uit": 5446, "\u00d0\u00be\u00d1\u0122\u00d0\u00b0": 5447, "\u00e6\u0129": 5448, "\u0120\u00d0\u013d": 5449, "rary": 5450, "ively": 5451, "\u00e6\u0138\u00b9\u00e6\u00a1\u012a": 5452, "\u00d0\u00be\u00d0\u00b1\u00d1\u012d": 5453, "utions": 5454, "\u0120Dr": 5455, "\u0120sym": 5456, "\u00c3\u00b2": 5457, "\u0120\u00d7": 5458, "\u00ef\u00bc\u0123\u010a": 5459, "\u00e9\u0135\u00be": 5460, "\u0120mag": 5461, "\u00d0\u00b0\u00d1\u0127": 5462, "\u00e9\u013a\u00b4": 5463, "\u00e6\u012e\u012b\u00e7\u0127\u00a7": 5464, "\u0120press": 5465, ".is": 5466, "(x": 5467, "\u00e9\u00b1": 5468, "\u0120hat": 5469, "\u00e9\u00a1\u00b6": 5470, "\u0120reason": 5471, "\u00e7\u00a1\u00ac": 5472, "\u0120ol": 5473, "Input": 5474, "\u00e4\u00bb\u012d\u00e7\u00bb\u012f": 5475, "rack": 5476, "\u00e4\u00bc\u013c\u00e8\u00ae\u00ae": 5477, "\u00e4\u00b8\u013e\u00e8\u00a5\u00bf": 5478, "\u00ef\u00bc\u012e\u00e6\u012a\u0133\u00e4\u00bb\u00ac": 5479, "\u00e8\u0126\u00b8": 5480, "\u00e4\u00b8\u0122\u00e7\u013d\u00b4": 5481, "\u0120Test": 5482, "iple": 5483, "fort": 5484, "\u0120har": 5485, "\u0120application": 5486, "ML": 5487, ".re": 5488, "\u00e6\u0122\u0122": 5489, "\u0120avec": 5490, "\u00ef\u00bc\u012e\u00e5\u012f\u00b3": 5491, "\u0120dos": 5492, "Ph": 5493, "utes": 5494, "\u00e8\u00a1\u012e\u00e6\u0136\u00bf": 5495, "annel": 5496, "\u00e8\u00af\u00a2": 5497, "\u00e8\u00b6\u00a3": 5498, "\u00e6\u0126\u0131\u00e8\u00af\u0128": 5499, "\u00e6\u012a\u0132\u00e6\u013e\u00ac": 5500, "\u0120\u00d0\u00b4\u00d0\u00b0": 5501, "body": 5502, "\u00e7\u0130\u012b": 5503, "\u00e6\u00b0\u0133\u00e6\u0139\u0131": 5504, "\u00e5\u00aa\u0134": 5505, "\u00d0\u00b0\u00d0\u00bd\u00d0\u00be\u00d0\u00b2": 5506, "\u00d1\u0123\u00d1\u0124\u00d0\u00b0\u00d0\u00b2": 5507, "path": 5508, "\u0120toget": 5509, "Status": 5510, "\u00e9\u0129\u0131\u00e7\u013c\u0126": 5511, "roups": 5512, "\u0120sens": 5513, "\u00ce\u00b9\u00ce\u00b1": 5514, "\u0120connect": 5515, "\u00d0\u00b5\u00d0\u00ba\u00d1\u0124": 5516, "\u0120together": 5517, "TR": 5518, "\u0120p\u00c3\u00a5": 5519, "\u0120along": 5520, "\u00e8\u00af\u00b4\u00e6\u013a\u0130": 5521, "\u0120Not": 5522, "\u0120Ne": 5523, "imum": 5524, "\u0120consum": 5525, "ride": 5526, "urg": 5527, "ilar": 5528, "\u00ce\u00b8": 5529, "\u0120review": 5530, "\u00e5\u0124\u00a8": 5531, "\u0120search": 5532, "\u00e9\u00b1\u00bc": 5533, "amespace": 5534, "\u00e6\u00b4\u00b2": 5535, "\u0120infl": 5536, "\u00e9\u0129\u0130": 5537, "\u0120Cal": 5538, "\u0120\u00d8\u00a2": 5539, "\u0120bool": 5540, "\u00e5\u013e\u00a3": 5541, "\u0120With": 5542, "\u0120quality": 5543, "\u0120exec": 5544, "\u00e8\u00ba\u00ab\u00e4\u00bd\u0135": 5545, "\u00e8\u012e\u00b6": 5546, "\u00e5\u00ae\u00b6\u00e5\u00ba\u0143": 5547, "ises": 5548, "abase": 5549, "label": 5550, "\u00e5\u013d\u00bd\u00e5\u0128\u0127": 5551, "\u00e5\u0127\u00b6\u00e5\u00ae\u0140": 5552, "\u00e8\u00a7\u00a6": 5553, "\u00e9\u013a\u0127": 5554, "\u00d1\u0123\u00d1\u0123": 5555, "mente": 5556, "down": 5557, "\u0120general": 5558, "\u0120mais": 5559, "\u0120\u00d0\u00bf\u00d0\u00be\u00d0\u00ba": 5560, "\u00e6\u0136\u00b9\u00e5\u0131\u013a": 5561, "\u00e5\u0141\u00b9\u00e8\u00ae\u0143": 5562, "\u00e4\u00b9\u012d\u00e4\u00b8\u0122": 5563, "\u00e7\u0140": 5564, "Comm": 5565, "ara": 5566, "zo": 5567, "\u0120single": 5568, "\u0120stop": 5569, "ince": 5570, "\u0120och": 5571, ".sh": 5572, "];\u010a": 5573, "\u00e8\u00b4\u0141\u00e8\u00b4\u00a3": 5574, "\u00e4\u00bd\u012f\u00e7\u00bd\u00ae": 5575, "\u0120away": 5576, "\u0120este": 5577, "\u00e7\u00a7\u0123": 5578, "\u0120relations": 5579, "\u0120org": 5580, "\u0120across": 5581, "#define": 5582, "\u00e4\u00bf\u0125\u00e8\u00bf\u013d": 5583, "\u00e5\u0131\u0124\u00e8\u0122\u0125": 5584, "\u00e9\u013d\u00b7": 5585, "\u00d0\u00be\u00d0\u00bb\u00d0\u00b5": 5586, "{}": 5587, "\u00e8\u0122\u0125\u00e8\u013b\u0133": 5588, "\\n": 5589, "\u00d0\u00b3\u00d0\u00b8": 5590, "\u0120\u00d9\u0125": 5591, "Trans": 5592, "\u00e7\u0136\u00b5\u00e5\u0143\u0132": 5593, "\u00e5\u00ae\u00bd": 5594, "static": 5595, "\u0120enough": 5596, "ledge": 5597, "\u0120American": 5598, "Inter": 5599, "\u0120\u00d0\u00be\u00d0\u00bd": 5600, "object": 5601, "\u00e9\u013a\u00bb": 5602, "\u00e4\u00ba\u00a4\u00e9\u0122\u013c": 5603, "\u00e1\u00ba\u00a1i": 5604, "\u0120(!": 5605, "iam": 5606, "\u0120\u00cf\u0126\u00ce\u00b7": 5607, "\u00e7\u00ae\u0122\u00e5\u012f\u0137": 5608, "\u0120Die": 5609, "LI": 5610, "\u0120\u0120\u0120\u0120\u0120\u0120\u0120\u0120\u0120\u0120": 5611, "\u0120role": 5612, "\u0120million": 5613, "\u0120potential": 5614, "\u00e6\u0138\u00b9\u00e5\u0132\u0133": 5615, "\u0120Ste": 5616, "\u0120property": 5617, "ipp": 5618, "\u00d1\u0130\u00d1\u0124\u00d1\u0123\u00d1\u0131": 5619, "\u00e7\u00bb\u0131\u00e9\u00aa\u012e": 5620, "\u00e4\u00bb\u00bb\u00e5\u012c\u00a1": 5621, "\u00e8\u00b0\u0123": 5622, "\u0120c\u00e1\u00bb\u00a7": 5623, "\u0120\u0120\u0120\u0120\u0120\u0120\u010a": 5624, "\u00e7\u00a8\u00b3\u00e5\u00ae\u013c": 5625, "VER": 5626, "\u00e5\u0143\u0136": 5627, "\u00e5\u0129\u0122": 5628, "\u00e6\u00b1\u0129": 5629, "\u0120via": 5630, "cope": 5631, "\u0120thought": 5632, "\u0120ich": 5633, "\u00e8\u00b8": 5634, "now": 5635, "\u00ef\u00bc\u012e\u00e5\u00ae\u0125": 5636, "eld": 5637, "\u00e5\u012f\u00ab\u00e7\u0136\u0141": 5638, "encia": 5639, "witch": 5640, "\u0120auto": 5641, "();\u010a\u010a": 5642, "cover": 5643, "\u00e4\u00bc\u00b0": 5644, "\u0120\u00d0\u00b5\u00d0\u00b3\u00d0\u00be": 5645, "\u00e9\u013d\u00b6": 5646, "][": 5647, "\u00e4\u00bb\u012c\u00e5\u00a4\u00a9": 5648, "urch": 5649, "\u00d0\u00bd\u00d0\u00b8\u00d0\u00ba": 5650, "\u00c3\u00a2n": 5651, "\u00e3\u0124\u0135": 5652, "\u00e5\u00ae\u013e": 5653, "\u00e5\u0135\u012a": 5654, "\u00e6\u00a2\u00a6": 5655, "\u00e6\u0122\u0137": 5656, "\u00e5\u013f\u0131": 5657, "client": 5658, "\u0120significant": 5659, "\u00e5\u012a\u00ba": 5660, "active": 5661, "\u0120ten": 5662, "\u0120subject": 5663, "\u0120ter": 5664, "\u00e5\u00bc\u00b1": 5665, "\u0124\u00ac": 5666, "\u00e7\u0125\u012a": 5667, "_g": 5668, "\u00e9\u00bd\u0132": 5669, "osed": 5670, "\u00e5\u0127\u00b1\u00e5\u0132\u012e": 5671, ",\u00e8\u00ae\u00a9": 5672, "\u00d1\u0139": 5673, "serv": 5674, "ivity": 5675, "map": 5676, "\u00e7\u013c\u0126\u00e9\u0139\u00ae\u00e9\u00a2\u013a": 5677, "\u00e6\u0126\u0141\u00e8\u00a7\u012b": 5678, "\u0120c\u00e1\u00bb\u00a7a": 5679, "Em": 5680, "cha": 5681, "\u0120\u0120\u0120\u0120\u0120\u0120\u0120\u0120\u0120\u0120\u0120\u0120": 5682, "\u0120Act": 5683, "How": 5684, "\u00e8\u00af\u0143\u00e8\u00a8\u0122": 5685, "\u00e7\u013c\u0126\u00e5\u0131\u0133\u00e5\u00b1\u0137": 5686, "\u0120option": 5687, "-S": 5688, "\u0120clear": 5689, "\u00e5\u012c\u00aa": 5690, "\u0120\u00c3\u00ae": 5691, "\u0120strong": 5692, "\u00e9\u013c\u0132": 5693, "CE": 5694, "\u00e9\u0134\u00a2": 5695, "\u0120email": 5696, "\u00e4\u00b8\u012f\u00e5\u0131\u00af": 5697, "\u00d1\u0122\u00d0\u00be\u00d1\u0123": 5698, "istic": 5699, "\u00e5\u00b7\u00a8": 5700, "\u0120known": 5701, "\u0120sche": 5702, "\u0120\u00e3\u0125": 5703, "\u00e4\u00bf\u013f\u00e6\u012e\u0123": 5704, "zer": 5705, "\u0120red": 5706, "\u00e7\u013d\u00ae\u00e7\u013c\u0126": 5707, "\u0120Web": 5708, "\u0120love": 5709, "\u0120map": 5710, "\u0120inf": 5711, "ensive": 5712, "\u0120especial": 5713, "udio": 5714, "\u0120hold": 5715, "\u0120sob": 5716, "mes": 5717, "\u00e2\u0122\u013bll": 5718, "Element": 5719, "_e": 5720, "\u0120Sc": 5721, "\u0120Part": 5722, "\u0120Co": 5723, "\u00e5\u00bf\u0125\u00e7\u0132\u0128": 5724, "\u0120output": 5725, "\u0120ir": 5726, "HT": 5727, "\u0120chall": 5728, "obile": 5729, "ffic": 5730, "Sub": 5731, "-color": 5732, "ena": 5733, "\u00d0\u00be\u00d0\u00b4\u00d1\u0125": 5734, "\u0120Dep": 5735, "\u00e8\u00a7\u0126\u00e5\u012a\u0134": 5736, "\u0120makes": 5737, "ster": 5738, "ained": 5739, "Button": 5740, "ptions": 5741, "Model": 5742, "\u00e8\u0124\u012e": 5743, "\u0109s": 5744, "used": 5745, "\u0120dam": 5746, "\u00e5\u00b9\u00b8": 5747, "\u00e9\u00a5\u00ae": 5748, "There": 5749, "\u0120May": 5750, "\u00e6\u013e\u012b\u00e9\u013b\u0132\u00e5\u0127\u00ac\u00e5\u0131\u00b8": 5751, "^{[": 5752, "\u0120implement": 5753, "oms": 5754, "\u0120Dis": 5755, "El": 5756, "\u0120\u00d0\u00bf\u00d0\u00be\u00d0\u00bc": 5757, "\u0120valid": 5758, "PS": 5759, "\u00e5\u00b9\u00bc": 5760, "\u0120autom": 5761, "\u00e8\u0131\u012e": 5762, "\u00d0\u00be\u00d1\u0123\u00d1\u0124\u00d0\u00b0\u00d0\u00b2": 5763, "\u0120impact": 5764, "\u0120changes": 5765, "\u00e6\u0125\u012c": 5766, "avor": 5767, "icrosoft": 5768, "\u00c3\u00a4t": 5769, "\u0120exam": 5770, "\u00e5\u00bd\u0135\u00e6\u0139\u00b6": 5771, "\u0120date": 5772, "itions": 5773, "Date": 5774, "\u00e8\u00a1\u00a1": 5775, "\u00e5\u0129\u0128\u00e5\u00a4\u0129": 5776, "\u0120issues": 5777, "\u00e5\u0123\u0131": 5778, "\u00e8\u00b0\u0135": 5779, "\u0120ach": 5780, "\u00e5\u013f\u0122": 5781, "block": 5782, "\u00e5\u0129\u00a1": 5783, "\u0120werden": 5784, "\u0120sind": 5785, "\u0120indic": 5786, "\u00d1\u0125\u00d1\u0123": 5787, "Param": 5788, "\u0120\u00d0\u00b7\u00d0\u00b0\u00d0\u00ba": 5789, "\u00e6\u012e\u0123\u00e7\u00bb\u0143": 5790, "\u00e5\u00bc\u00b9": 5791, "\u00c3\u00a6": 5792, "\u0120technology": 5793, "\u00e5\u012f\u012a": 5794, "```\u010a\u010a": 5795, "\u0120profess": 5796, "\u00e5\u0143\u00a6\u00e9\u013b\u00a2": 5797, "\u00d9\u0126\u00d9\u012b": 5798, "atis": 5799, "anel": 5800, "\u00e6\u0139\u0127\u00e6\u00b8\u00b8": 5801, "echo": 5802, "\u00e3\u0122\u0124\u00e4\u00bb\u0138": 5803, "rodu": 5804, "\u00e7\u00ab\u0141": 5805, "depend": 5806, "\u00e6\u013e\u012b\u00e7\u013c\u0126": 5807, "\u00e5\u00b9\u0127": 5808, "asing": 5809, "\u00e6\u012c\u013a": 5810, "\u0120management": 5811, "aging": 5812, "ih": 5813, "\u0120sugg": 5814, "\u0120\u00d1\u0124\u00d0\u00be": 5815, "aining": 5816, "\u0120thing": 5817, "\u00e6\u013a\u0142": 5818, "\u0120media": 5819, "amos": 5820, "\u00e4\u00b9\u012d\u00e5\u012b\u012f": 5821, "\u0120once": 5822, "\u0120\u00d0\u00b8\u00d1\u0123\u00d0\u00bf": 5823, "\u00e4\u00bb\u00aa": 5824, "\u0120oder": 5825, "\u00e6\u0139\u00a7": 5826, "\u00e5\u0130\u013c": 5827, "\u0120respect": 5828, "\u00e3\u0125\u00bc\u00e3\u0124": 5829, "\u0120United": 5830, "\u0120initial": 5831, "\u00e5\u012e\u00bb\u00e7\u0138\u0139": 5832, "open": 5833, "\u0120hom": 5834, "\u00e7\u0132\u0128\u00e8\u00a7\u00a3": 5835, "\u00e4\u00bc\u0133": 5836, "Client": 5837, "\u0120alg": 5838, "\u0120tell": 5839, "\u00e5\u00b0\u00a4": 5840, "\u0120typ": 5841, "\u0120original": 5842, "uct": 5843, "\u00e5\u0129\u0131\u00e5\u00b0\u0133": 5844, "\u0120estab": 5845, "TE": 5846, "time": 5847, "\u00e3\u0123\u013b\u00e3\u0124\u012d": 5848, "\u00e4\u00b8\u0122\u00e4\u00b8\u012d": 5849, "\u00e5\u0128\u013e\u00e4\u00b8\u013c": 5850, "\u0120Bo": 5851, "}/": 5852, "\u00e8\u013e": 5853, "\u00e8\u00af\u0126\u00e4\u00bb\u00b7": 5854, "\u00e9\u0136\u0122\u00e5\u0136\u00ae": 5855, "\u0120suggest": 5856, "ji": 5857, "kl": 5858, "\u00c3\u00a8re": 5859, "\u0120deg": 5860, "\u0120dise": 5861, "\u0120provided": 5862, "\u0120later": 5863, "\u00c3\u00a8s": 5864, "\u00e8\u00b2": 5865, "\u0120simple": 5866, "\u00e9\u0138": 5867, "cher": 5868, "\u00e6\u0143\u00a3\u00e5\u00b8\u00b8": 5869, "\u00e5\u0136\u0132": 5870, "\u00c3\u00a4n": 5871, "\u00e4\u00b9\u00b1": 5872, "ditions": 5873, "\u00e4\u00ba\u00a4\u00e6\u013a\u0135": 5874, "\u00e5\u012c\u00b1": 5875, "arr": 5876, "sg": 5877, "\u0120cook": 5878, "\u0120Some": 5879, "\u00e6\u013e\u00ab": 5880, "\u0120among": 5881, "\u00e5\u0127\u0127\u00e5\u012a\u0128": 5882, "\u00e6\u00a1\u00a5": 5883, "\u00d0\u00bd\u00d1\u0125": 5884, "\u0120companies": 5885, "AME": 5886, "\u00cf\u0130": 5887, "\u0120cam": 5888, "\u0120Ge": 5889, "\u00e5\u0127\u00b3\u00e6\u00b3\u00a8": 5890, "MA": 5891, "\u00e6\u012d\u012f": 5892, "\u0120history": 5893, "From": 5894, "\u00e8\u00b5\u0126\u00e9\u0129\u0133": 5895, "\u0120status": 5896, "ati": 5897, "\u0120questions": 5898, "\u0120\u00c3\u00b6": 5899, "header": 5900, "\u00e9\u00b2\u013e": 5901, "ners": 5902, ".js": 5903, "\u0120update": 5904, "ply": 5905, "\u00e5\u012a\u0133": 5906, "andom": 5907, "\u0120load": 5908, "\u00e9\u00a4\u0132": 5909, "\u0120sam": 5910, "\u00d0\u00b0\u00d0\u00b5\u00d1\u0124": 5911, "\u0120Aut": 5912, "\u0120Europe": 5913, "\u00e7\u013c\u0126\u00e8\u00af\u013f": 5914, "\u00e8\u00ae\u00a4\u00e8\u00af\u0128": 5915, "\u00e4\u00b9\u0141\u00e4\u00b8\u012f": 5916, "\u0120below": 5917, "\u0120Per": 5918, "ape": 5919, "\u00e9\u013a\u00b5": 5920, "\u0120buy": 5921, "atal": 5922, "\u00e6\u012c\u0135": 5923, "local": 5924, "Sc": 5925, "args": 5926, "\u00d0\u00be\u00d1\u0123\u00d1\u0124\u00d0\u00b8": 5927, "-re": 5928, "\u00d1\u0126\u00d0\u00be\u00d1\u0122": 5929, "\u00e9\u0124\u00a3\u00e4\u00ba\u013d": 5930, "\u0120\u00d0\u00b1\u00d0\u00be\u00d0\u00bb\u00d1\u012e": 5931, "\u00e4\u00b8\u0143\u00e5\u00a4\u00ae": 5932, "\u0120Cor": 5933, ".x": 5934, "\u0120concern": 5935, "\u0120diffic": 5936, "\u0120az": 5937, "rl": 5938, "\u00cf\u0126\u00ce\u00b1": 5939, "\u00e4\u00bc\u00b4": 5940, "\u00e6\u013e\u00ba\u00e5\u012a\u00b6": 5941, "\u00e5\u00a7\u0136\u00e5\u0133\u013a": 5942, "\u0120node": 5943, "\u0120patients": 5944, "\u0120claim": 5945, "tre": 5946, "ube": 5947, "assert": 5948, "\u00e5\u0129\u00ba\u00e4\u00ba\u0128": 5949, "\u0120rate": 5950, "\u00e3\u0123\u0139\u00e3\u0123\u0141": 5951, "lication": 5952, "\u00d1\u0124\u00d0\u00b8\u00d0\u00b2": 5953, "II": 5954, "wards": 5955, "\u00e9\u00a6\u0138\u00e5\u0127\u012a": 5956, "\u00e8\u00bf\u0132\u00e8\u00a1\u012e": 5957, "sl": 5958, "\u00e9\u013d\u00aa": 5959, "\u00e9\u013f\u00a2\u00e7\u013c\u0126": 5960, "\u00e4\u00b8\u00a5\u00e9\u0129\u012f": 5961, "\u00e8\u0124\u00bf": 5962, "\u0120training": 5963, "Table": 5964, "\u00e7\u00bb\u0131\u00e8\u00bf\u0129": 5965, "\u00e7\u00ab\u0140\u00e4\u00ba\u012b": 5966, "ram": 5967, "\u00e6\u0123\u00b6": 5968, "\u00c5\u00af": 5969, "\u0120DE": 5970, "\u00c3\u00b5": 5971, "\u0120match": 5972, "-to": 5973, "lege": 5974, "\u00e4\u00b8\u012f\u00e5\u0132\u012e\u00e7\u013c\u0126": 5975, "oi": 5976, "ategory": 5977, "\u00e5\u0129\u00bd\u00e6\u0137\u00b0": 5978, "position": 5979, "iction": 5980, "Over": 5981, "\u00c3\u00a9m": 5982, "\u0120industry": 5983, "ental": 5984, "query": 5985, "\u0120limit": 5986, "\u00e5\u012c\u00aa\u00e5\u012c\u013d": 5987, "\u0120early": 5988, "\u00e5\u00ae\u00a2\u00e6\u012a\u00b7": 5989, "\u0120host": 5990, "\u0120integr": 5991, "\u0120easy": 5992, "\u00eb\u012d\u00a4": 5993, "\u00e4\u00ba\u00a6": 5994, "{{": 5995, "lood": 5996, "iques": 5997, "ria": 5998, "\u00e7\u00a6\u0123": 5999, "\u0120recomm": 6000, "\u0120h\u00e1\u00bb": 6001, "\u0120global": 6002, "ande": 6003, "\u0120della": 6004, "\u0120cut": 6005, "itted": 6006, "\u00e8\u00b0\u0125\u00e6\u0137\u00b4": 6007, "\".\u010a": 6008, "else": 6009, "\u00e4\u00bf\u013f\u00e9\u013c\u013e": 6010, "\u00e5\u0135\u0123\u00e7\u012b\u012e": 6011, "zie": 6012, "\u00e6\u012e\u0129\u00e5\u00af\u00bc": 6013, ")\u010d\u010a": 6014, "\u00e6\u013d\u00b4\u00e5\u012c\u0142": 6015, "\u00e8\u00b4\u00ab": 6016, "ivo": 6017, "\u00d0\u0135": 6018, "\u00e5\u013f\u013c\u00e6\u012e\u0123": 6019, "\u0120NULL": 6020, "cht": 6021, "\u0120created": 6022, "\u00d0\u0133": 6023, "\u00ec\u013f\u00b4": 6024, "\u00e7\u012b\u00b9\u00e7\u0124\u00b9": 6025, "_data": 6026, "\u0120doing": 6027, "\u00e6\u012a\u0132\u00e7\u00ab\u012d": 6028, "\u0120mal": 6029, "ira": 6030, "INT": 6031, "ades": 6032, "section": 6033, "\u00e4\u00bf\u013f\u00e8\u00af\u0123": 6034, "\u0120nov": 6035, "\u00d0\u00b2\u00d0\u00be\u00d0\u00b4": 6036, "\u00e7\u012b\u013b": 6037, "\u00d0\u00b0\u00d0\u00b3": 6038, "\u0120\u00ed": 6039, "Image": 6040, "\u00e5\u00bc\u0137\u00e8\u00b5\u00b7": 6041, "\u00e5\u0132\u0130\u00e7\u013c\u0126": 6042, "\u0120video": 6043, "most": 6044, "CL": 6045, "\u00e7\u00b4\u00af": 6046, "\u0120{\u010a\u010a": 6047, "\u00e5\u00a6\u0129": 6048, "\u00e8\u00b4\u00a5": 6049, "db": 6050, "\u0120Am": 6051, "\u00d9\u012c\u00d8\u00b1": 6052, "\u00e7\u00ba\u00b8": 6053, "\u00e5\u0130\u0141\u00e5\u012a\u013b": 6054, "\u0120\u00c3\u00bcber": 6055, "\u0120ja": 6056, "package": 6057, "ete": 6058, "\u00e6\u0137\u00b4\u00e4\u00b8\u00aa": 6059, ".L": 6060, "table": 6061, "ula": 6062, ".png": 6063, "\u00e6\u0139\u00b6\u00e6\u013e\u0141": 6064, "\u00e8\u0136": 6065, "board": 6066, "\u00e7\u00bf\u00bb": 6067, "ku": 6068, "ko": 6069, "ptr": 6070, ".id": 6071, "nbsp": 6072, "\u00e6\u00a8\u00a1\u00e5\u0140\u012d": 6073, "flow": 6074, "Group": 6075, "\u0120task": 6076, "ops": 6077, "rid": 6078, "ima": 6079, "\u00e8\u00af\u00b8": 6080, "\u00e6\u00b6\u00a6": 6081, "\u00e5\u0129\u013f": 6082, "ynam": 6083, "\u0120\u00d1\u0123\u00d0\u00bc": 6084, "oll": 6085, "\u0120land": 6086, "\u0120further": 6087, "\u0120My": 6088, "\u00e7\u0136\u0141\u00e7\u012b\u00a9": 6089, "\u0120looking": 6090, "<div": 6091, "php": 6092, "\u0120Int": 6093, "\u00e5\u00bb\u00ba\u00e8\u00ae\u00ae": 6094, "\u0120li": 6095, "\u00d0\u00be\u00d1\u0123\u00d1\u0123": 6096, "\u00d1\u0123\u00d0\u00ba\u00d0\u00be\u00d0\u00b9": 6097, "\u0120treatment": 6098, "\u00e8\u012f\u00a3": 6099, "\u00e8\u00af\u0133": 6100, "\u00e7\u0136\u0141\u00e6\u0122\u0123": 6101, "\u0120clean": 6102, "\u00e5\u0133\u012a": 6103, "IF": 6104, "\u00d0\u00be\u00d0\u00bd\u00d0\u00b0": 6105, "\u00e5\u0131\u012f\u00e5\u00ba\u0136": 6106, "\u0120mer": 6107, "\u0120systems": 6108, "\u0120Pre": 6109, "\u0120One": 6110, "\u00e4\u00b8\u012f\u00e8\u00a6\u0123": 6111, "oph": 6112, "\u0120mes": 6113, "\u0120\u00d0\u00b0\u00d0\u00b2": 6114, "\u00ef\u00bc\u012e\u00e4\u00bd\u00bf": 6115, "ixed": 6116, "Count": 6117, "\u0120problems": 6118, "\u0120increase": 6119, "\u00e5\u00af\u00bb": 6120, "\u0120sett": 6121, "\u0120bei": 6122, "\u0120quick": 6123, "\u00e9\u0122\u0136": 6124, "\u0120\u00d0\u00bc\u00d0\u00be\u00d0\u00b6\u00d0\u00b5\u00d1\u0124": 6125, ":\u010a\u010a": 6126, "\u0120Gener": 6127, "\u0120flex": 6128, "\u00e6\u00b1\u00bd\u00e8\u00bd\u00a6": 6129, "\u00e6\u00a5\u013c": 6130, "\u00e5\u0129\u00ba\u00e7\u013c\u0126": 6131, "\u00e9\u00ba\u00bb": 6132, "\u0109\u0109\u0109\u0109\u0109\u0109": 6133, "-M": 6134, "\u00e5\u0131\u0139\u00e5\u012a\u00b0": 6135, "\u0120sum": 6136, "\u00e9\u00bb\u013a": 6137, "change": 6138, "\u0120share": 6139, "\u00e4\u00b8\u012f\u00e8\u00bf\u0129": 6140, "\u0120alle": 6141, "\u00e6\u00b4\u012d": 6142, "ela": 6143, "\u00e7\u00a7\u012d": 6144, "\u00d0\u00b5\u00d0\u00bd\u00d0\u00b8\u00d0\u00b8": 6145, "rix": 6146, "\u0120nos": 6147, "\u0120jour": 6148, ",\u00e4\u00bb\u0138": 6149, "\u0120\u00d0\u00b4\u00d0\u00be\u00d0\u00bb": 6150, "\u0120Mark": 6151, "IV": 6152, "\u00e3\u0123\u012c": 6153, "aged": 6154, "\u00ef\u00bc\u012e\u00e4\u00b8\u00ba": 6155, "\u00e7\u0136\u0141\u00e5\u0133\u00bd": 6156, "where": 6157, "\u00e4\u00ba\u00a1": 6158, "\u0120house": 6159, "\u0120conditions": 6160, "\u00d0\u00b0\u00d1\u0124\u00d0\u00b0": 6161, "df": 6162, "\u0120continue": 6163, "\u00e4\u00b8\u012f\u00e4\u00bb\u0127": 6164, "\u00e6\u00b6\u012b": 6165, "\u0120url": 6166, "array": 6167, "ador": 6168, ".to": 6169, "\u00e8\u012a\u0140": 6170, "\u0120imm": 6171, "lig": 6172, "\",\"": 6173, "\u0120\u00c3\u00a7": 6174, "\u00e6\u0130\u00a5\u00e5\u0131\u0139": 6175, "\u0120State": 6176, "\u00e9\u00b9": 6177, "encies": 6178, "\u0120expected": 6179, "\u0120bi": 6180, "\u0120types": 6181, "\u0120language": 6182, "\u0120actually": 6183, "ATE": 6184, "ifier": 6185, "Dis": 6186, ",\u00e4\u00bd\u0142": 6187, "\u00e6\u00b0\u00a7": 6188, "adas": 6189, "UM": 6190, "When": 6191, "het": 6192, "\u00e6\u00b8\u00b8\u00e6\u012a\u0131": 6193, "iento": 6194, "\u00e9\u013d\u0128\u00e5\u013d\u00a2": 6195, "\u0120normal": 6196, "ona": 6197, "\u00e5\u00b1\u012c": 6198, "\u0120education": 6199, "_pro": 6200, "acity": 6201, "\u0120face": 6202, "\u0120fall": 6203, "bb": 6204, "Rec": 6205, "though": 6206, "\u00e8\u00ae\u00a2": 6207, "\u00e5\u00bd\u0135\u00e7\u0126\u00b6": 6208, "\u0120character": 6209, "\u00e6\u0130\u00aa\u00e6\u0138\u00bd": 6210, "\u00e8\u00bf\u0130": 6211, "\u00e6\u00af\u0136\u00e5\u00a6\u0124": 6212, "\u0120mut": 6213, "\u00e7\u00be\u00a4\u00e4\u00bc\u0139": 6214, "azione": 6215, "\u0120Ag": 6216, "ialog": 6217, "\u00e8\u00bf\u013b\u00e6\u0142\u00b7\u00e7\u013c\u0126": 6218, "esch": 6219, "\u0120\u00c3\u00a4": 6220, "\u0120\u00d0\u00b1\u00d0\u00b5\u00d0\u00b7": 6221, "\u00e7\u013e\u0141\u00e6\u0143\u00a3": 6222, "nov": 6223, "\u0120etc": 6224, "\u0120provides": 6225, "UE": 6226, "\u0120comes": 6227, "\u0120live": 6228, "\u00e3\u0123\u00a7\u00e3\u0123\u013b": 6229, "\u0120\u00d0\u00bd\u00d0\u00be\u00d0\u00b2": 6230, "\u0120compl": 6231, "\u0120young": 6232, "\u0120\u00d0\u0143": 6233, "\u00d0\u00bb\u00d0\u00b0\u00d0\u00b4": 6234, "\u00e3\u0125\u00bb": 6235, "\u00d0\u00a3": 6236, "mark": 6237, "\u00e5\u00b8\u0123": 6238, "xy": 6239, "ras": 6240, "\u0120label": 6241, "uilder": 6242, "'re": 6243, "ils": 6244, ".W": 6245, "\u00e7\u00bb\u0126\u00e6\u012a\u0132": 6246, "\u00e2\u0122\u00a2": 6247, "\u0120areas": 6248, ">>": 6249, "clus": 6250, "\u0120sie": 6251, "\u0120don't": 6252, "\u00e7\u0141\u00bf": 6253, "ython": 6254, "\u00e6\u012c\u00a5\u00e5\u0133\u012c": 6255, "(e": 6256, "\u00e6\u0130\u012b": 6257, "\u00d0\u00b5\u00d0\u00bb\u00d1\u0131": 6258, "\u00e8\u00af\u00be\u00e7\u00a8\u012d": 6259, "\u0120IS": 6260, "\u00d0\u00be\u00d0\u00b3\u00d0\u00b4\u00d0\u00b0": 6261, "\u0120Comp": 6262, "\u0120higher": 6263, "\u00e7\u00ba\u00af": 6264, "\u0120Mon": 6265, "\u00e6\u00a1\u0128": 6266, "\u00d1\u0129\u00d0\u00b8": 6267, "\u0120performance": 6268, "\u00e9\u013b\u012f\u00e4\u00bd\u0130": 6269, "\u0120likely": 6270, "\u0120natural": 6271, "\u00e7\u0125\u0141": 6272, "\u0120List": 6273, "\u0120refer": 6274, "\u0120learning": 6275, "\u00e4\u00bd\u00b3": 6276, "izing": 6277, "\u0120age": 6278, "\u00d0\u00bf\u00d1\u0122\u00d0\u00b0\u00d0\u00b2": 6279, "\u00d1\u0131\u00d0\u00b2": 6280, "\u00e3\u0122\u0124\"": 6281, "\u00e5\u00a6\u0124\u00e6\u0143\u00a4": 6282, "Reg": 6283, "maz": 6284, "\u0120element": 6285, "rame": 6286, "\u00e4\u00bd\u0135\u00e7\u013c\u0126": 6287, "\u0120array": 6288, "\u00e3\u0125\u00b3\u00e3\u0125": 6289, "medi": 6290, "\u00e5\u0133\u00bc": 6291, "option": 6292, "\u00e8\u00bf\u013f": 6293, "\u0120bank": 6294, "\u00e9\u0137\u013e": 6295, "eturn": 6296, "\u00e5\u012e\u0138\u00e7\u013c\u0126": 6297, "\u00e5\u00b3\u00b0": 6298, "\u00eb\u012c": 6299, "\u0120\u00d0\u00bc\u00d0\u00be\u00d0\u00b6\u00d0\u00bd\u00d0\u00be": 6300, "\u00e3\u0122\u0124\u00e8\u0122\u012e": 6301, "\u0120instance": 6302, "ky": 6303, "just": 6304, "\u00e4\u00b8\u012d\u00e7\u013c\u0126": 6305, "\u00e5\u0131\u0133\u00e5\u00b1\u0137\u00e7\u013c\u0126": 6306, "\u00e8\u00a7\u0126\u00e6\u00a8\u00a1": 6307, "\u00e9\u00a5\u0143": 6308, "ti": 6309, "pose": 6310, "\u0120\u00d0\u00bf\u00d1\u0122\u00d0\u00b0\u00d0\u00b2": 6311, "\u0120it's": 6312, "\u00d0\u00bd\u00d1\u012d\u00d0\u00bc\u00d0\u00b8": 6313, "urance": 6314, "\u0120previous": 6315, "yles": 6316, "\u00e8\u012a\u00b9": 6317, "\u00e8\u00b7\u0133": 6318, "\u0120months": 6319, "\u00e7\u013e\u0141\u00e7\u013c\u0126": 6320, "select": 6321, "_H": 6322, "\u0120\u00ce\u00b4": 6323, "\u0120deal": 6324, "\u0120mor": 6325, "\u00ef\u00bc\u012e\u00e9\u0124\u00a3": 6326, "\u0120financial": 6327, "\u0120\u00d0\u00bf\u00d0\u00be\u00d1\u0124": 6328, "%;\u010a": 6329, "\u00e5\u00b1\u0140\u00e4\u00ba\u0130": 6330, "-al": 6331, "\u00e5\u00ba\u0128": 6332, "\u0120\u00ef\u00bc\u012a": 6333, "\u00d1\u0125\u00d0\u00bb\u00d1\u012e": 6334, "\u00e3\u0124\u012a": 6335, "\u0120security": 6336, "\u00e5\u00ae\u00a3\u00e4\u00bc\u0142": 6337, "\u00e6\u00b1\u00a1": 6338, "\u0120sw": 6339, "\u00c3\u00a1l": 6340, "\u0120\u00d0\u00bf\u00d0\u00be\u00d0\u00b2": 6341, "_RE": 6342, "\u0120[\u010a": 6343, "\u0120\"\"": 6344, "\u00e5\u0135\u00a5": 6345, "\u00d0\u00ba\u00d0\u00be\u00d0\u00bc": 6346, "\u00d1\u0124\u00d1\u0125": 6347, "\u00e9\u013b\u00a4\u00e4\u00ba\u0128": 6348, "anz": 6349, "ania": 6350, "\u0120\u00d8\u00a7\u00d8\u00b2": 6351, ".de": 6352, "umb": 6353, "\u00e9\u0123\u012f": 6354, "\u0120OR": 6355, "\u00e6\u012d\u0141": 6356, "\u00e8\u0123\u0136\u00e7\u00b3\u00bb": 6357, "\u00e8\u00b4\u00b4": 6358, "\u00e4\u00ba\u00a4\u00e6\u00b5\u0123": 6359, "\u00e6\u0139\u00a5\u00e6\u013e\u0141": 6360, "atory": 6361, "\u0120Set": 6362, "\u00e5\u0132\u013d": 6363, "\u00e7\u013c\u0126\u00e5\u00b0\u0131": 6364, "\u0120sort": 6365, "\u00d8\u00a7\u00d9\u0129": 6366, "\u00e8\u00a7\u0126\u00e8\u012e\u0125": 6367, "\u00e6\u013e\u012b\u00e4\u00b8\u0122": 6368, "\u00c3\u00a9g": 6369, "Su": 6370, "\u0120city": 6371, "\u00e1\u00ba\u00af": 6372, "\u0120various": 6373, "\u0120ps": 6374, "\u00e6\u0130\u00a8\u00e8\u00bf\u013d": 6375, "Component": 6376, "\u00e8\u00b0\u0125\u00e6\u0141\u00a5": 6377, "\u00e9\u0122\u0141\u00e5\u00ba\u00a6": 6378, "\u00e6\u013f\u00a8": 6379, "\u00d0\u00b5\u00d0\u00b3": 6380, "\u00e8\u00b6\u0127\u00e8\u00bf\u0129": 6381, ".E": 6382, "CO": 6383, "cia": 6384, "light": 6385, "\u0120\u0120\u0120\u0120\u0120\u0120\u0120\u0120\u010a": 6386, "dir": 6387, "Str": 6388, "\u00e7\u013d\u00b8\u00e5\u00af\u00b9": 6389, "\u00ef\u00bf": 6390, "\u00e8\u00a1\u00a8\u00e8\u00be\u00be": 6391, "\u0120ear": 6392, "\u00e5\u0128\u013e\u00e6\u013f\u0133": 6393, "\u0120\u00d8\u00a7\u00d8\u00b3\u00d8\u00aa": 6394, "\u00ef\u00bc\u012e\u00e5\u0131\u00af\u00e4\u00bb\u00a5": 6395, "\u0120John": 6396, "\u00e5\u00b2\u013d": 6397, "kn": 6398, "fully": 6399, "\u0120move": 6400, "\u00c2\u00b7\u00c2\u00b7": 6401, "\u0120users": 6402, "\u0120difficult": 6403, "\u0120\u00d0\u00a4": 6404, "\u00e7\u012b\u00b9\u00e5\u00be\u0123": 6405, ".length": 6406, "\u0120fre": 6407, ".app": 6408, "\u0120though": 6409, "\u00cf\u0123\u00ce\u00bf": 6410, "\u00e5\u00ae\u012d": 6411, "\u00d1\u0138\u00d0\u00b4": 6412, "verage": 6413, "iddle": 6414, "\u00cf\u0126\u00ce\u00bf": 6415, "\u0120similar": 6416, "\u00d0\u00ba\u00d1\u0122\u00d0\u00b0": 6417, "\u0120agre": 6418, "\u00e3\u0123\u00a3\u00e3\u0123\u00a6": 6419, "\u0120func": 6420, "\u0120addition": 6421, "\u00e4\u00b9\u012d\u00e9\u0139\u00b4\u00e7\u013c\u0126": 6422, "\u0120policy": 6423, "\u00e7\u00a7\u013a": 6424, "\u0120ren": 6425, "\u00ef\u00bc\u012b\u010a": 6426, "\u00e4\u00bd\u013e\u00e8\u0122\u0127": 6427, "\u00e8\u00b5\u0126\u00e6\u013e\u00ac": 6428, "\u00e6\u0137\u0127\u00e4\u00ba\u012d": 6429, "\u00e7\u013f\u00a1": 6430, "\u0120story": 6431, "\u00e6\u00af\u0131\u00e4\u00b8\u00aa": 6432, "\u00d1\u0128\u00d0\u00b8\u00d0\u00be\u00d0\u00bd": 6433, "\u00e6\u012a\u013a\u00e7\u0137\u00a5": 6434, "\u0120works": 6435, "\u0120needed": 6436, "efore": 6437, "Att": 6438, "KE": 6439, "iert": 6440, "\u0120yet": 6441, "\u0120write": 6442, "\u00e5\u0122\u00ba": 6443, "\u00e6\u013e\u0122\u00e5\u00a4\u00a7": 6444, "\u0120wie": 6445, "\u00e7\u00b3\u00bb\u00e5\u012a\u0139": 6446, "\u0120States": 6447, "udi": 6448, "\u00e5\u00b0\u012c": 6449, "ried": 6450, "plit": 6451, "\u00e4\u00ba\u00ba\u00e6\u012b\u012f": 6452, "\u0120\u00d8\u00a5": 6453, "\u0120cases": 6454, "\u0120\u00ce\u00ba\u00ce\u00b1\u00ce\u00b9": 6455, "ungs": 6456, "\u0120\u00d8\u00a7\u00d9\u0126\u00d8\u00aa": 6457, "nes": 6458, "\u0120\u00d8\u00a8\u00d8\u00b1": 6459, "\u0120Art": 6460, "\u00e5\u00a5\u00a5": 6461, "\u00e5\u0137\u0128\u00e5\u0135\u0123": 6462, "\u0120issue": 6463, "\u00e7\u00bc\u013a": 6464, "\u0120step": 6465, "\u0120\u00d9\u0127\u00db\u012e": 6466, "\u0120accept": 6467, "ening": 6468, "\u0120select": 6469, "\u0120Em": 6470, "\u00e8\u00bf\u0136": 6471, "\u0120fig": 6472, "\u0120mass": 6473, "\u0120relationship": 6474, "\u0120coll": 6475, "\u0120National": 6476, "\u00e8\u00b5\u0126\u00e4\u00ba\u00a7": 6477, "\u0120\u00d0\u00b7\u00d0\u00bd\u00d0\u00b0": 6478, "aa": 6479, "\u0120prior": 6480, "uster": 6481, "\u00e1\u00bb\u012d": 6482, "NA": 6483, "\u00e4\u00bf\u013f\u00e9\u013b\u00a9": 6484, "\u00e6\u013a\u00af\u00e4\u00b8\u0122\u00e7\u00a7\u012f": 6485, "unch": 6486, "\u0120sou": 6487, "-item": 6488, "\u0120building": 6489, "\u0120nach": 6490, "adem": 6491, "\u00e5\u00b8\u0143": 6492, "\u0120\u00d0\u00bc\u00d0\u00b5": 6493, "assword": 6494, "\u00e7\u013d\u013d": 6495, "\u0120rights": 6496, "omet": 6497, "\u0120writing": 6498, "\u00e8\u00b4\u00b8": 6499, "\u00e5\u00be\u00aa": 6500, "\u00e7\u00aa\u0139": 6501, "New": 6502, "\u0120By": 6503, "selves": 6504, "ged": 6505, "\u00ea\u00b3": 6506, "ging": 6507, "\u0120Gl": 6508, "eds": 6509, "\u0120getting": 6510, "ological": 6511, "({": 6512, "\u00e3\u0123\u0142": 6513, "\u00d0\u00b5\u00d1\u0122\u00d0\u00b6": 6514, "\u0120ways": 6515, "\u0120ur": 6516, "PC": 6517, "\u00e6\u00a1\u00a3": 6518, "\u00e6\u00bb\u00a1\u00e8\u00b6\u00b3": 6519, "MS": 6520, "\u0120vor": 6521, "\u0120files": 6522, "\u0120\u00d0\u00b2\u00d0\u00be": 6523, "\u0120features": 6524, "\u00e5\u0132\u012b": 6525, "\u0120uma": 6526, "\u00c3\u00a9es": 6527, "\u0120effort": 6528, "\u0120\u00d0\u00b8\u00d0\u00b3": 6529, "\u00d0\u00b8\u00d0\u00bc\u00d0\u00b8": 6530, "\u0120await": 6531, "\u0120extra": 6532, "$(": 6533, "otal": 6534, "\u0120idea": 6535, ".ex": 6536, "\u0120Af": 6537, "\u00e8\u0123\u012e\u00e4\u00b8\u013c": 6538, "anced": 6539, "\u0120box": 6540, "\u0120I'": 6541, "}\\": 6542, "hen": 6543, "\u0120~": 6544, "\u0120mis": 6545, "format": 6546, "So": 6547, "apter": 6548, "\u0120\u00d0\u00b2\u00d0\u00b8\u00d0\u00b4": 6549, "iy": 6550, "ban": 6551, "\u0120cannot": 6552, "\u00c2\u0142": 6553, "uses": 6554, "\u00e5\u00bc\u0141": 6555, "\u0120ever": 6556, "\u0120lat": 6557, "\u00e5\u00b1\u012d": 6558, "\u0120Trans": 6559, "\u00e9\u0139\u0143": 6560, "iler": 6561, "\u00e7\u00a5\u0138": 6562, "\u0120bal": 6563, "\u00ef\u00bc\u012e\u00e5\u00a5\u00b9": 6564, "\u00e6\u013a\u0130\u00e7\u00a1\u00ae": 6565, "cr": 6566, "\u00e8\u0124\u013f": 6567, "'est": 6568, "\u0120article": 6569, "\u0120hours": 6570, "anch": 6571, "\u0120points": 6572, "\u00d0\u00b4\u00d0\u00b8": 6573, "ounds": 6574, "\u00e8\u0129\u00aa\u00e7\u0136\u00b1": 6575, "\u00e5\u0132\u012e\u00e5\u0143\u00a6": 6576, "width": 6577, "\u00e5\u00b9\u00b3\u00e5\u013f\u0129": 6578, "\u00d0\u00bc\u00d1\u0125": 6579, "\u00e4\u00be\u012d\u00e5\u00a6\u0124": 6580, "ello": 6581, "Content": 6582, "\u0120Rep": 6583, "\u00e9\u00bc\u0135": 6584, "\u0120pie": 6585, "\u00e5\u00b7\u00a5\u00e5\u0127\u00b7": 6586, "\u0109t": 6587, "\u00e5\u013d\u0140\u00e7\u0143\u0136": 6588, "cing": 6589, "env": 6590, "\u0120blog": 6591, "\u0120propos": 6592, "\u00e8\u00bf\u0129\u00e5\u0130\u00bb": 6593, "\u0120double": 6594, "\u0120\u00d0\u00b2\u00d1\u0122\u00d0\u00b5\u00d0\u00bc": 6595, "\u00e4\u00b8\u0138\u00e7\u00ba\u00aa": 6596, "\u00e6\u0133\u0126": 6597, "\u00e6\u013e\u0122\u00e7\u00bb\u012a": 6598, "ga": 6599, "\u0120Google": 6600, "\u00e5\u0131\u0138\u00e5\u00be\u0139": 6601, "\u0120::": 6602, "\u00c3\u00acnh": 6603, "\u0120uint": 6604, "char": 6605, "\u0120obtain": 6606, "\u00e7\u013c\u0126\u00e5\u00bd\u00b1\u00e5\u0135\u012f": 6607, "pa": 6608, "\u00e5\u012a\u013d\u00e5\u00bb\u00ba": 6609, "\u00e2\u0122\u013bm": 6610, "ports": 6611, "\u00e6\u00bb\u0133": 6612, "amento": 6613, "({\u010a": 6614, "\u0120organiz": 6615, "\u0120pack": 6616, "\u0120solid": 6617, "\u0120growth": 6618, "\u0120wir": 6619, "ahr": 6620, "\u0120lower": 6621, "\u00e6\u00ba\u00b6": 6622, "\u0120Data": 6623, "\u00e5\u0131\u012c\u00e6\u0139\u00b6": 6624, "\u00e5\u0131\u0133\u00e6\u012e\u00a5": 6625, "\u0120cause": 6626, "idden": 6627, "\u00db\u012e\u00d8\u00af": 6628, "\u00e8\u0122\u00b3": 6629, "itory": 6630, "\u0120server": 6631, "\u00c5\u00bce": 6632, "\u00e5\u00b2\u00a9": 6633, "\u0120track": 6634, "\u00e5\u0127\u00a8\u00e9\u0125\u00a8": 6635, "%%": 6636, "\u0120affect": 6637, "\u00e6\u0136\u00b6\u00e5\u0127\u00a5": 6638, "\u0120Inter": 6639, "\u00e9\u013c\u0136": 6640, "\u00e1\u00bb\u00af": 6641, "\u00e4\u00bc\u013a\u00e5\u012c\u00bf": 6642, "\u00e6\u013e\u00aa\u00e6\u013f\u00a5": 6643, "\u00e8\u00a3\u0124": 6644, "\u00d8\u00ba": 6645, "ename": 6646, "ished": 6647, "\u0120prevent": 6648, "\u00e9\u00be\u0126": 6649, "\u0120\u00d0\u00b4\u00d1\u0122\u00d1\u0125\u00d0\u00b3": 6650, "ouch": 6651, "\u00c4\u00b1r": 6652, "\u00e4\u00b8\u00b0\u00e5\u00af\u012e": 6653, "\u00eb\u012c\u0136": 6654, "ervices": 6655, "\u0120ill": 6656, "\u00e6\u012b\u0122\u00e7\u00a4\u00ba": 6657, "\u0120princ": 6658, "\u0120five": 6659, "\u00e5\u0131\u0124\u00e6\u0137\u00b0": 6660, "\u0120terms": 6661, "CP": 6662, "\u00e7\u013a\u00a4": 6663, "ctx": 6664, "\u00e7\u012a\u00b8": 6665, "\u0120\u00d1\u0129\u00d0\u00b0": 6666, "\u0120decl": 6667, "\u0120opp": 6668, "i\u00e1\u00bb\u0123": 6669, "\u00e5\u0132\u012a\u00e7\u0132\u0128": 6670, "output": 6671, "\u00e8\u00bf\u013b\u00e4\u00b9\u012a": 6672, "\u0120emp": 6673, "uly": 6674, "\u00e8\u0124\u00af": 6675, "\u00e4\u00bb\u00a5\u00e5\u0132\u0130": 6676, "\u0120pued": 6677, "\u00e7\u013c\u0126\u00e9\u0129\u012f\u00e8\u00a6\u0123": 6678, "elling": 6679, "\u0120flow": 6680, "\u00c6\u00b0\u00e1\u00bb\u00a3c": 6681, "\u0120card": 6682, "\u0120none": 6683, "\u00e5\u00ae\u013c\u00e4\u00b9\u012b": 6684, "\u0120approach": 6685, "\u00e4\u00b8\u012d\u00e6\u013f\u00a5": 6686, "post": 6687, "inner": 6688, "Ref": 6689, "\u0120prec": 6690, "ocker": 6691, "\u00e9\u00a5\u00b0": 6692, "\u00e6\u00be": 6693, "\u00e7\u00b9": 6694, "\u0120\u00c3\u00a9t": 6695, "hib": 6696, "\u0120fail": 6697, "\u0120sav": 6698, "}\u010a\u010a//": 6699, "\u0120\u00d0\u00a7": 6700, "\u00e7\u00a4\u00be\u00e5\u012e\u00ba": 6701, "\u00e7\u0138\u00be\u00e7\u0139\u0127": 6702, "\u0120analysis": 6703, "\u00e8\u00b6\u012d": 6704, "\u00e6\u0142\u00b7\u00e7\u013c\u0126": 6705, "\u00e9\u013e\u0129": 6706, "\u00e8\u00af\u00a6": 6707, "Types": 6708, "istance": 6709, "\u00e9\u0137\u00bf\u00e6\u013e\u0141": 6710, "\u0120\u0120\u0120\u0120\u0120\u0120\u0120\u0120\u0120\u0120\u0120\u0120\u0120\u0120\u0120\u0120\u0120\u0120\u0120\u0120\u0120": 6711, "cel": 6712, "\u0120ensure": 6713, "ided": 6714, "\u00e6\u0143\u00a3\u00e7\u00a1\u00ae": 6715, "\u00d0\u0139": 6716, "\u0120ing": 6717, "\u00e5\u00ab": 6718, "\u00e6\u00b2\u0141": 6719, "\u00d0\u00b5\u00d1\u0122\u00d0\u00b8": 6720, "\u00e5\u0128\u012e": 6721, "field": 6722, "Sp": 6723, "\u0120dass": 6724, "\u0120regard": 6725, "\u00e5\u0130\u012d\u00e5\u012c\u013d": 6726, "\u00e5\u0127\u00a8\u00e7\u0132\u0125": 6727, "\u0120according": 6728, "\u0120\u00e4\u00b8\u0143": 6729, "\u00e5\u00b7\u00a6\u00e5\u0131\u00b3": 6730, "\u00ef\u00bf\u00bd": 6731, "\u00d1\u0128\u00d0\u00b0": 6732, "\u00e7\u00ba\u00b7": 6733, "\u00e7\u013b\u012e": 6734, ".name": 6735, "\u0120however": 6736, "\u00e6\u0138\u00bd\u00e5\u00b7\u00a5": 6737, "\u0120conse": 6738, "\u0120device": 6739, "\u00e5\u012f\u0123\u00e5\u012a\u0128": 6740, "ns": 6741, "container": 6742, "\u00d0\u013d": 6743, "context": 6744, ",\u00e4\u00bd\u0128\u00e6\u013a\u00af": 6745, "\u0120Pres": 6746, "\u0120\u00c3\u00ba": 6747, "\u0109for": 6748, "anto": 6749, "unic": 6750, "\u00e9\u013d\u0126": 6751, "icles": 6752, "\u00e9\u0125\u00bd\u00e6\u013e\u012b": 6753, "\u0120dru": 6754, "anger": 6755, "\u00e6\u00b5\u0135": 6756, "\u00e6\u00b9\u00bf": 6757, "Link": 6758, "\u00d0\u00ba\u00d0\u00b0\u00d0\u00b7": 6759, "vi": 6760, "lim": 6761, "\u00e9\u013d\u0127": 6762, "\u0120pred": 6763, "\u0120complete": 6764, ">(": 6765, "\u00e6\u0137\u00b0\u00e5\u0143\u0139": 6766, "SON": 6767, "Acc": 6768, "igation": 6769, "\u00e8\u0129\u00aa\u00e8\u00ba\u00ab": 6770, "\u00d0\u00b8\u00d1\u0124\u00d1\u0123\u00d1\u0131": 6771, "\u0120\u00d0\u00bf\u00d1\u0122\u00d0\u00be\u00d0\u00b2": 6772, "rypt": 6773, "\u0120\u0120\u0120\u0120\u0120\u0120\u0120\u0120\u0120\u0120\u0120\u0120\u0120\u0120\u0120\u0120\u0120\u0120\u0120\u0120\u0120\u0120\u0120\u0120\u0120\u0120\u0120\u0120\u0120\u0120\u0120\u0120\u0120\u0120\u0120": 6774, "istry": 6775, ",\u00e6\u012b\u0122\u00e4\u00bb\u00a5": 6776, "pc": 6777, "\u0120OF": 6778, "\u00ef\u00bc\u012e\u00e6\u012b\u0122\u00e4\u00bb\u00a5": 6779, "\u0120sex": 6780, "\u0120resources": 6781, "su": 6782, "\u00e6\u012a\u0133\u00e4\u00bb\u00ac\u00e7\u013c\u0126": 6783, "\u00e8\u00a1\u012e\u00e5\u012c\u00a8": 6784, "\u00e5\u00ae\u013c\u00e7\u013c\u0126": 6785, "\u00d0\u00be\u00d1\u012a": 6786, "\u00e6\u0142\u00b8\u00e5\u00bf\u0125": 6787, "toc": 6788, "\u00e5\u00b0\u0131\u00e6\u0139\u00b6": 6789, "PO": 6790, "\u0120price": 6791, "leep": 6792, "-pro": 6793, "oke": 6794, "center": 6795, "\u00ef\u00bc\u0141\u00e2\u0122\u013f": 6796, "\u00d0\u00b5\u00d0\u00bd\u00d0\u00b8\u00d0\u00b9": 6797, "\u0120voor": 6798, "\u0120close": 6799, "\u0120\u00d9\u012a\u00d8\u00a7\u00d9\u0126": 6800, "\u00e4\u00ba\u00ba\u00e7\u00b1\u00bb": 6801, "\u00ef\u00bc\u012e\u00e4\u00bd\u0128\u00e6\u013a\u00af": 6802, "\u0120started": 6803, "\u00d0\u00bb\u00d0\u00b5\u00d0\u00bd\u00d0\u00b8\u00d1\u0131": 6804, "\u00e8\u0124\u00a4": 6805, "\u00d1\u0125\u00d1\u0127": 6806, "\u00e6\u013c\u00b4": 6807, "\u0120heart": 6808, "root": 6809, "\u00e5\u00b0\u00bf": 6810, "\u0120length": 6811, "\u0120York": 6812, ".data": 6813, "-y": 6814, "\u0120paper": 6815, "\u00e5\u0128\u0142": 6816, "\u00d1\u0124\u00d0\u00be\u00d0\u00bc": 6817, "oo": 6818, "\u00e5\u0132\u012a\u00e5\u0132\u012e": 6819, "\u00e6\u013e\u00ba\u00e4\u00bc\u013c": 6820, "\u0120whole": 6821, "\u0120Val": 6822, "gn": 6823, "ffer": 6824, "\u0120rather": 6825, "bit": 6826, "\u00e8\u0129\u00aa\u00e5\u012c\u00a8": 6827, "\u0120Est": 6828, "\u00e7\u013c\u0126\u00e6\u0125\u0127\u00e5\u0128\u00b5": 6829, "\u0120Stud": 6830, "\u0120seen": 6831, "\u00e9\u0134\u012a\u00e5\u00af\u00b9": 6832, "osition": 6833, "\u00e1\u00bb\u00b1": 6834, "empt": 6835, "abs": 6836, "\u0120express": 6837, "\u0120Sec": 6838, "wa": 6839, "oz": 6840, "\u0120hot": 6841, "\u0120words": 6842, "\u0120contr": 6843, "\u0120\u00d0\u00ba\u00d0\u00be\u00d0\u00bc\u00d0\u00bf": 6844, "\u0120command": 6845, "ederal": 6846, "\u00e9\u013f\u00a2\u00e7\u00a7\u00af": 6847, "_to": 6848, "\u0120added": 6849, "\u00e7\u00bb\u0141\u00e4\u00b8\u0122": 6850, "\u0120Health": 6851, "\u00d1\u0138\u00d0\u00b2": 6852, "Manager": 6853, "\u00e4\u00ba\u012d\u00e4\u00bb\u00b6": 6854, "aint": 6855, "};\u010a": 6856, "\u0120apply": 6857, "issions": 6858, "\u0120\u00d0\u00b3\u00d0\u00be\u00d1\u0122": 6859, "\u00e7\u0123\u00af": 6860, "\u00ef\u00bc\u012e\u00e8\u00bf\u013a": 6861, "\u0120Gu": 6862, "\u00ef\u00bc\u012e\u00e5\u012a\u013b": 6863, "\u00e2\u0133\u0142": 6864, "\u00e8\u0122\u0127\u00e7\u013c\u0126": 6865, ")(": 6866, "\u00e4\u00b8\u0129\u00e5\u0127\u0125": 6867, "\u00c3\u00b5es": 6868, "\u00e0\u00b2": 6869, "with": 6870, "\u00e6\u0125\u00af": 6871, "Read": 6872, "\u00e5\u012c\u013d\u00e9\u0129\u0131": 6873, "\u00e5\u0131\u00aa\u00e8\u00a6\u0123": 6874, "\u00e7\u00bb\u0141\u00e8\u00ae\u00a1": 6875, "\u00e6\u012e\u00af": 6876, "\u00e5\u00bf\u0127\u00e8\u00a6\u0123": 6877, "QL": 6878, "\u00d0\u00be\u00d0\u00bb\u00d0\u00be\u00d0\u00b3": 6879, "\u0120standard": 6880, "ached": 6881, "\u00d0\u00b0\u00d1\u0124\u00d1\u012e\u00d1\u0123\u00d1\u0131": 6882, "\u0120\u00c3\u00aen": 6883, "\u00e9\u00a2\u013e": 6884, "\u00e5\u00a5\u00b6": 6885, "jo": 6886, "ese": 6887, ".y": 6888, "\u00e5\u013e\u012a": 6889, "\u00d1\u012d\u00d0\u00bc": 6890, "\u00e8\u0125\u00a1": 6891, "\u0120cy": 6892, "\u0120knowledge": 6893, "\u00e3\u0122\u0124\u00e5\u00a6\u0124\u00e6\u0140\u013e": 6894, "\u0120\u00d0\u00b4\u00d0\u00b5\u00d0\u00bb": 6895, "\u00e3\u0123\u0133": 6896, "\u00e5\u00b0\u00b1\u00e4\u00bc\u013c": 6897, "\u00e6\u0137\u0131": 6898, "Page": 6899, "\u00e0\u00b0": 6900, "\u0120ang": 6901, "\u0120},": 6902, "\u00e6\u00ae\u012c": 6903, "\u0120viol": 6904, "\u00e5\u0127\u012a\u00e7\u0136\u0141": 6905, "\u0120\u00d9\u00be": 6906, "\u00e7\u0136\u00b5\u00e8\u00af\u013f": 6907, "\u00e8\u0124\u00a5": 6908, "opp": 6909, "chan": 6910, "\u0120Nov": 6911, "\u0120virt": 6912, "typ": 6913, "parent": 6914, "\u0109p": 6915, "bin": 6916, "\u0120ot": 6917, "fol": 6918, "\u00c2\u0143": 6919, "anning": 6920, "Act": 6921, "\u00e6\u00b3\u013d": 6922, "\u00e4\u00b8\u0135\u00e5\u00ae\u00b6": 6923, "-e": 6924, "\u0120Bar": 6925, "\u0120saf": 6926, "\u00e7\u0130\u00b0\u00e8\u00b1\u00a1": 6927, "\u00e5\u012a\u00a9\u00e7\u013d\u012c": 6928, "\u0120correct": 6929, "\u0120Pe": 6930, "\u00e6\u013b\u00ba\u00e8\u0125\u00bd": 6931, "astic": 6932, "\u0120contract": 6933, "\u0120tut": 6934, "\u00e5\u00ba\u0136\u00e5\u00bd\u0135": 6935, "\u0120jed": 6936, "\u0120soci": 6937, "\u0120engine": 6938, "update": 6939, "\u00d1\u0125\u00d0\u00bd": 6940, "\u0120float": 6941, "\u00e6\u00a3\u0122\u00e6\u00b5\u012d": 6942, "\u00e6\u012e\u0129\u00e6\u0142\u0129": 6943, "\u00e7\u0125\u00a7": 6944, "\u00e5\u0130\u0127": 6945, "\u00e5\u0127\u00ac\u00e5\u0127\u00b1": 6946, "\u00e7\u00a5\u0140\u00e7\u00bb\u0131": 6947, "iten": 6948, "\u00e8\u00bd\u00af\u00e4\u00bb\u00b6": 6949, "TP": 6950, "\u00e8\u0123\u0136\u00e5\u0132\u012a": 6951, "\u00e9\u0127\u012f\u00e7\u00bd\u00ae": 6952, "\u00d8\u00a7\u00d8\u00b3": 6953, "\u0120especially": 6954, "\u00e5\u0131\u00aa\u00e8\u0125\u00bd": 6955, "\u0120\u00d0\u00bf\u00d0\u00be\u00d0\u00bb\u00d1\u0125\u00d1\u0129": 6956, "emp": 6957, "Query": 6958, "/g": 6959, "ischen": 6960, "\u00e5\u012a\u013d\u00e9\u0122\u0142": 6961, "\u00e6\u013e\u0141\u00e9\u0139\u00b4": 6962, "\u0120medical": 6963, "_v": 6964, "\u00e6\u013d\u00bf": 6965, "\u0120sobre": 6966, "\u00d0\u00b5\u00d0\u00bf": 6967, "\u0120};\u010a": 6968, "\u0120\u00d1\u0124\u00d0\u00be\u00d0\u00bb\u00d1\u012e\u00d0\u00ba\u00d0\u00be": 6969, "\u00e4\u00b8\u00ba\u00e4\u00bb\u0122\u00e4\u00b9\u012a": 6970, ",\u00e5\u0131\u00af": 6971, "\u00cf\u0126\u00ce\u00b7": 6972, "cd": 6973, "\u0120\u00d1\u0138": 6974, "\u0120enter": 6975, "\u0120\u00d0\u00bf\u00d0\u00bb": 6976, "\u00e6\u0130\u00a8\u00e5\u012c\u00a8": 6977, "\u00e9\u012b": 6978, "cret": 6979, "\u00d1\u0122\u00d0\u00be\u00d0\u00bc": 6980, "\u0120entire": 6981, "\u0120Tra": 6982, "\u00e6\u00b1\u0142": 6983, "\u00e4\u00b8\u012b\u00e4\u00b8\u00aa": 6984, "\u00e5\u00ae\u0125\u00e4\u00bb\u00ac": 6985, "\u0120Pa": 6986, "\u0120purch": 6987, "\u00e5\u0122\u012f": 6988, "pu": 6989, "\u0120store": 6990, "\u00e4\u00bf\u00a1\u00e5\u0131\u00b7": 6991, "_path": 6992, "\u0120nu": 6993, "\u0120Sci": 6994, "\u0120})\u010a": 6995, "\u00e5\u0128\u0127\u00e9\u0125\u00a8": 6996, "\u00e8\u00b4\u00b7": 6997, "\u0120phot": 6998, "\u00e7\u0126\u00b6\u00e8\u0122\u012e": 6999, "egin": 7000, "\u0120separ": 7001, "\u0120mil": 7002, "uint": 7003, "\u0120taking": 7004, "\u00e6\u013c\u0139": 7005, "amed": 7006, "_size": 7007, "\u00e9\u0129\u012f\u00e8\u00a6\u0123\u00e7\u013c\u0126": 7008, "\u00e7\u0136\u00b3\u00e8\u00af\u00b7": 7009, "olution": 7010, "\u0120kon": 7011, "\u00cf\u0123\u00ce\u00b1": 7012, "\u00e5\u00bc\u0137\u00e7\u0136\u00a8": 7013, "\u00ef\u00bc\u012e\u00e5\u00b0\u0128": 7014, "\u0120loss": 7015, "\u0120None": 7016, "pected": 7017, "\u00e4\u00b8\u00ba\u00e4\u00b8\u00bb": 7018, "fa": 7019, ",\u00e8\u00bf\u013a": 7020, "-based": 7021, "\u0120\u0121": 7022, "){\u010a": 7023, "\u00d1\u0123\u00d0\u00b0": 7024, "akt": 7025, "\u0120\u00d0\u00be\u00d1\u0122": 7026, "\u0120ni": 7027, "\u00e6\u012c\u00bd": 7028, "\u00e6\u00ae\u012d": 7029, "\u0120interface": 7030, "\u00e8\u0127\u00b9": 7031, "aur": 7032, "mas": 7033, "\u0120len": 7034, "\u00e6\u00b2\u00bf": 7035, "\u0120came": 7036, "hand": 7037, "\u0120|\u010a": 7038, "\u00e3\u0122\u0124\u00e5\u013d\u0142\u00e6\u0143\u00a4": 7039, "\u00e6\u00a2\u0123": 7040, "\u0120handle": 7041, "\u00e5\u0143\u013b": 7042, ".Get": 7043, "\u00d1\u0123\u00d0\u00ba\u00d0\u00be\u00d0\u00b3\u00d0\u00be": 7044, "cm": 7045, "\u00e5\u0128\u00ac": 7046, "\u0120necessary": 7047, "\u0120Je": 7048, "-B": 7049, "\u0120sont": 7050, "One": 7051, "\u00c5\u013dci": 7052, "\u0120Your": 7053, "\u00d1\u0124\u00d0\u00be\u00d0\u00b1\u00d1\u012d": 7054, "********************************": 7055, "\u0120tim": 7056, "\u00e6\u00b0\u0131": 7057, "\u0120events": 7058, "\u0120java": 7059, "\u00e1\u00bb\u013bt": 7060, "\u0120believe": 7061, "OC": 7062, "ened": 7063, "TH": 7064, "\u00e9\u0141\u00b3\u00e4\u00b9\u0132": 7065, "/t": 7066, "\u00e6\u012b\u00ac": 7067, "PL": 7068, "\u0120wird": 7069, "\u0120plant": 7070, "erial": 7071, "\u00e7\u00ae\u00b1": 7072, "\u0120behav": 7073, "joy": 7074, "\u0120\u00d0\u00b6\u00d0\u00b5": 7075, "\u00e3\u0125\u00b3\u00e3\u0124": 7076, "\u0120\u00d1\u0123\u00d0\u00be\u00d0\u00b2": 7077, "\u0120eval": 7078, "\u0120groups": 7079, "\u00c8\u013b": 7080, "\u00e6\u013f\u00a5\u00e8\u00b6\u012c": 7081, "\u0120Jan": 7082, "\u0120Cons": 7083, "\u00e8\u00a7\u0124\u00e5\u00af\u0141": 7084, "iner": 7085, "\u00e5\u00af\u0134": 7086, "\u0120answer": 7087, "Token": 7088, "\u00e4\u00b8\u012f\u00e5\u012a\u00b0": 7089, "\u00d1\u0123\u00d0\u00b8": 7090, "ker": 7091, "\u00d1\u0125\u00d1\u012a": 7092, "\u00e3\u0125\u00ac": 7093, "\u0120prz": 7094, "\u00d8\u00b1\u00d8\u00af": 7095, "response": 7096, "kit": 7097, "\u0120taken": 7098, "\u0120format": 7099, "\u00e5\u013e\u0141\u00e5\u013e\u00b0": 7100, "\u0120student": 7101, "RA": 7102, "SC": 7103, "ln": 7104, "\u00e7\u012b\u00a9\u00e8\u00b4\u00a8": 7105, "\u00e5\u00b9\u00b6\u00e4\u00b8\u012f": 7106, "\u0120\u00d1\u0123\u00d0\u00be\u00d0\u00b1": 7107, "\u0120additional": 7108, ",\u00e5\u00a4\u00a7": 7109, "\u0120West": 7110, "\u00e5\u00a7\u0132": 7111, "\u0120tele": 7112, "part": 7113, "\u0120levels": 7114, "ali": 7115, "\u00e5\u0129\u0142\u00e4\u00b8\u00aa": 7116, "\u00e9\u00b8\u00a1": 7117, "\u00e7\u00a7\u00a6": 7118, "\u00d0\u00bb\u00d0\u00b0\u00d0\u00b2": 7119, "\u00e5\u00b9\u0137": 7120, "\u00e5\u012a\u00b8": 7121, "pm": 7122, "ugin": 7123, "\u00e6\u00af\u00ab": 7124, "\u00d1\u0123\u00d0\u00ba\u00d0\u00b8\u00d0\u00b9": 7125, "\u00e8\u00b6\u012c\u00e6\u013f\u00a5\u00e8\u00b6\u012c": 7126, "\u0120recogn": 7127, "\u00e7\u0130\u00b0\u00e5\u013e\u00ba": 7128, "umer": 7129, "\u00ef\u00bc\u012e\u00e5\u0131\u012a": 7130, "eller": 7131, "\u0120hor": 7132, "\u00e7\u0136\u00a8\u00e7\u013c\u0126": 7133, "iat": 7134, "\u0120transform": 7135, "Number": 7136, "\u00e5\u0123\u013c\u00e5\u00a5\u00bd": 7137, "aux": 7138, "doc": 7139, "\u0120observ": 7140, "\u00e7\u013d\u0132": 7141, "\u00e9\u00a1\u00bf": 7142, "agen": 7143, "\u00cf\u0126\u00ce\u00b5": 7144, "alls": 7145, "\u00e6\u0123\u00a9": 7146, "\u00e6\u0137\u00a2": 7147, "\u00e9\u0129\u012e\u00e7\u013c\u0126": 7148, "\u00e8\u0126\u0124": 7149, "\u00e5\u0128\u00b0": 7150, "\u00e5\u012a\u00b6\u00e9\u0122\u0142": 7151, "\u00e6\u00b7\u00bb": 7152, "\u00e9\u0123\u00bf\u00e5\u0127\u012f": 7153, "-st": 7154, "(:": 7155, "\u00e5\u00a6\u012a\u00e5\u00a6\u012a": 7156, "\u00e4\u00ba\u012e\u00e5\u012f\u0123": 7157, "\u0120ok": 7158, "\u00e6\u0131\u0134": 7159, "\u00e6\u00b5\u00aa": 7160, "\u00e5\u012a\u0128\u00e5\u00b8\u0125": 7161, "\u0120section": 7162, "\u0120\"${": 7163, "\u0120Il": 7164, "cast": 7165, "\u0120anim": 7166, "\u0120til": 7167, "\u0120\u00d0\u00b7\u00d0\u00b0\u00d0\u00bf": 7168, "\u00e5\u0131\u00ac": 7169, "\u0120white": 7170, "\u0120\u00d8\u00a7\u00d9\u0126\u00d8\u00a3": 7171, "\u00e1\u00bb\u00a5": 7172, "mar": 7173, "\u00e5\u0133\u013a\u00e5\u00b7\u00a5": 7174, "\u0120room": 7175, "EO": 7176, "\u00cf\u0122\u00ce\u00bf": 7177, "\u0120mu": 7178, "\u00e4\u00b8\u00b4\u00e5\u00ba\u012c": 7179, "\u00ef\u00bc\u012e\u00e5\u00a4\u00a7": 7180, "isation": 7181, "\u00d0\u00be\u00d0\u00b3\u00d1\u0122\u00d0\u00b0": 7182, "';\u010a\u010a": 7183, "\u0120methods": 7184, "ees": 7185, "\u00e6\u012d\u00a5\u00e6\u013e\u012b": 7186, "\u00e5\u0131\u0133\u00e5\u00b8\u0125": 7187, "\u0120q": 7188, "_in": 7189, "\u0120minutes": 7190, "ci\u00c3\u00b3n": 7191, "Options": 7192, "eline": 7193, "\u0120\u00d1\u0125\u00d1\u0123\u00d1\u0124": 7194, "\u00d8\u00a7\u00d8\u00b9": 7195, "\u0120grad": 7196, "mon": 7197, "actions": 7198, "adata": 7199, "opyright": 7200, "\u0109\u010a": 7201, "\u00c5\u0126": 7202, "\u00e6\u0143\u00a3\u00e5\u013e\u00a8": 7203, "\u00d1\u0131\u00d0\u00b7": 7204, "\u00e7\u012b\u00b9\u00e8\u012b\u00b2": 7205, "\u0120histor": 7206, "\u00e5\u012a\u0128\u00e4\u00b8\u00ba": 7207, "\u0120platform": 7208, "\u00e5\u0136\u00af": 7209, "_list": 7210, "SP": 7211, "ILE": 7212, "\"/": 7213, "\u0120World": 7214, "\u00e5\u00ae\u012e\u00e5\u0138\u0126": 7215, "\u00e7\u00b9\u0123": 7216, "\u0120production": 7217, "_st": 7218, "\u00e9\u00ab\u013a\u00e7\u013c\u0126": 7219, "\u00e6\u00a8\u00aa": 7220, "\u0120recent": 7221, "EC": 7222, "\u00d0\u00be\u00d0\u00bb\u00d1\u012e\u00d0\u00b7\u00d0\u00be\u00d0\u00b2": 7223, "\u00e7\u0136\u00b5\u00e5\u00bd\u00b1": 7224, "\u0120national": 7225, "};\u010a\u010a": 7226, "abe": 7227, "\u0120ID": 7228, "ani": 7229, "\u0120items": 7230, "aciones": 7231, "())\u010a": 7232, "\u00e6\u013e\u012b\u00e4\u00ba\u013d": 7233, "\u00e3\u0122\u012d\u00ef\u00bc\u012e": 7234, "idget": 7235, "pond": 7236, "\u0120equip": 7237, "\u00e3\u0125\u0139": 7238, "\u00e9\u012b\u00b4": 7239, "Point": 7240, "\u00e9\u0128\u0134": 7241, "\u0120\u00d0\u00b8\u00d1\u0127": 7242, "\u00d0\u00bd\u00d1\u0138": 7243, "\u0120\u00c4\u0133\u00c6\u00b0\u00e1\u00bb\u00a3c": 7244, "\u0120tw": 7245, "\u00d0\u00bd\u00d0\u00b8\u00d0\u00ba\u00d0\u00b0": 7246, "\u0120\u00d0\u00bc\u00d1\u012d": 7247, "\u00e7\u00b5": 7248, "inen": 7249, "\u0120p\u00c5\u013b": 7250, "\u00e9\u013a\u0127\u00e8\u00af\u00bb": 7251, "\u0120solution": 7252, "\u00d1\u0122\u00d0\u00b5\u00d0\u00b1": 7253, "\u00d8\u00a7\u00d8\u00b2": 7254, "\u00d0\u00bb\u00d0\u00b8\u00d1\u0129": 7255, "\u00d0\u00b8\u00d0\u00b1": 7256, "\u0120tod": 7257, "\u00e8\u00b1\u0128": 7258, "ufact": 7259, "imo": 7260, "\u00e5\u00bc\u0125": 7261, "\u00e6\u00a7": 7262, "\u00e4\u00b8\u0122\u00e7\u0124\u00b9": 7263, "\u00e5\u0132\u00b4": 7264, "\u00e8\u00ae\u00b0\u00e5\u00bd\u0137": 7265, "\u0120bad": 7266, "_ST": 7267, "pub": 7268, "\u0120c\u00c3\u00a1c": 7269, "oved": 7270, "izer": 7271, "\u00e4\u00b8\u012f\u00e5\u00be\u0139": 7272, "\u00c2\u00bb,": 7273, "\u0120jak": 7274, "\u00e5\u00b0\u00a4\u00e5\u0127\u00b6": 7275, "\u0120related": 7276, "\u00e4\u00bb\u00a5\u00e6\u013f\u00a5": 7277, "\").": 7278, "\u0120Es": 7279, "duc": 7280, "a\u00c3\u00a7\u00c3\u00a3o": 7281, "ORT": 7282, "kg": 7283, "\u00ec\u0126": 7284, "\u00e6\u012b\u012d\u00e6\u013e\u00ba": 7285, "\u0120includes": 7286, "aker": 7287, "\u0120practice": 7288, "params": 7289, "ioni": 7290, "\u00e6\u0125\u0142": 7291, "\u00e6\u00a4\u012f\u00e7\u012b\u00a9": 7292, "amily": 7293, "\u0120introdu": 7294, "\u0120administ": 7295, "MP": 7296, "\u0120bien": 7297, "\u00e4\u00be\u00b5": 7298, "\u0120weight": 7299, "IO": 7300, "\u00e7\u0123\u0143": 7301, "\u00e8\u00af\u013c": 7302, "\u00d0\u00bd\u00d0\u00b8\u00d1\u0131": 7303, "Box": 7304, "iger": 7305, "iting": 7306, "vider": 7307, "\u0120sy": 7308, "\u00e7\u012a\u0128": 7309, "\u00e6\u012a\u0132\u00e4\u00ba\u0128": 7310, "\u00e5\u0131\u00a6\u00e5\u00a4\u0138": 7311, "_IN": 7312, "\u00e5\u00ba\u0126": 7313, "\u0120throw": 7314, "xx": 7315, "uns": 7316, "\u00d0\u00b0\u00d0\u00b1": 7317, "\u00e5\u00a1\u0136": 7318, "cy": 7319, "hal": 7320, "jet": 7321, "\u0120news": 7322, ".</": 7323, "-r": 7324, "_L": 7325, "\u00e5\u00a1\u0140": 7326, "\u0120\u00e2\u0122\u00a6": 7327, "\u00e6\u00ac\u00b2": 7328, "<T": 7329, "size": 7330, "\u0109public": 7331, "author": 7332, "\\\\": 7333, "\u00e3\u0123\u013f": 7334, "\u0120\u00cf\u0126\u00ce\u00bf\u00cf\u0127": 7335, "inate": 7336, "\u00e5\u012c\u0140\u00e6\u00b3\u0137": 7337, "\u0120took": 7338, "\u00e8\u0134\u013b": 7339, "lied": 7340, "........": 7341, "\u00ef\u00bc\u012e\u00e5\u013d\u0142\u00e4\u00b8\u00ba": 7342, "\u0120Us": 7343, "\u0120\u00d1\u0123\u00d0\u00ba": 7344, "\u0120clos": 7345, "DB": 7346, "\u0120auth": 7347, "\u00e6\u00bc\u00ab": 7348, "child": 7349, "uge": 7350, "\u00e7\u00a7\u00b0\u00e4\u00b8\u00ba": 7351, "\u0120complex": 7352, "react": 7353, "\u00e5\u0137\u0128\u00e4\u00b8\u013c": 7354, "\u0120Acc": 7355, "ocket": 7356, "\u0120proced": 7357, "\u00e6\u012e\u0133": 7358, "\u00e4\u00b9\u00b3": 7359, "\u00e9\u0122\u013c\u00e5\u00b8\u00b8": 7360, "Click": 7361, "\u00e9\u013d\u0128\u00e4\u00b8\u0143": 7362, "\u00ef\u00bc\u012b\u00e3\u0122\u0124": 7363, "\u0120\u00d0\u00b8\u00d0\u00bd\u00d1\u0124": 7364, "\u0120Str": 7365, "\u0120simply": 7366, "\u00e5\u00b2\u0139": 7367, "\u0120walk": 7368, "\u0120School": 7369, "\u00e7\u013d\u0133\u00e7\u013f\u00a3": 7370, "URL": 7371, "\u0120priv": 7372, "andid": 7373, "\u00ef\u00bc\u012e\u00e5\u00a6\u0124\u00e6\u0140\u013e": 7374, "\u00e5\u00bd\u00bb": 7375, "\u0120black": 7376, "\u00d0\u00be\u00d0\u00bb\u00d0\u00b8": 7377, "\u00c3\u00a9c": 7378, "\u0120unique": 7379, "\u0120column": 7380, "\u0120$(": 7381, "\u00c4\u00b1nd": 7382, "Ab": 7383, "\u00e5\u00bd\u0135\u00e5\u012b\u012f": 7384, "\u00e7\u013d\u00ae\u00e5\u00bd\u0137": 7385, "\u00e5\u0138\u013f": 7386, "ead": 7387, "Start": 7388, "\u00e9\u0129\u0129\u00e5\u0131\u0138": 7389, "\u00e8\u0135\u013f": 7390, "\u00e4\u00b8\u00bb\u00e4\u00bb\u00bb": 7391, "\u0120pu": 7392, "\u0120Aust": 7393, "-top": 7394, "\u0120\u00d0\u00bd\u00d0\u00b0\u00d1\u0129": 7395, "\u00e9\u013f\u00a9\u00e5\u0133\u00bd": 7396, "\u00e6\u0137\u012e": 7397, "\u00d0\u00be\u00d1\u0124\u00d0\u00be\u00d0\u00b2": 7398, "\u0120arch": 7399, "\u00e5\u00a2\u013b": 7400, "\u00e7\u00a7\u0141": 7401, "FA": 7402, "\u0120bud": 7403, "\u0120Rec": 7404, "\u0120fra": 7405, "\u00e8\u00be\u0127": 7406, "\u00e4\u00bb\u0138\u00e4\u00bb\u00ac\u00e7\u013c\u0126": 7407, "\u00e3\u0124\u00b7": 7408, "\u00e6\u00b4\u0140": 7409, "\u0120CON": 7410, "Us": 7411, "\u00e5\u012c\u013d\u00e7\u013c\u0126": 7412, "actory": 7413, "\u00e6\u00b4\u0123": 7414, "\u00e6\u00a3\u00ae": 7415, "\u0120absol": 7416, "\u00d1\u012d\u00d0\u00b2\u00d0\u00b0": 7417, "\u0120jest": 7418, "oman": 7419, "{\\": 7420, "\u0120wy": 7421, "nav": 7422, "\u0120legal": 7423, "iene": 7424, "\u00d0\u00b2\u00d0\u00b5": 7425, "\u00e4\u00ba\u0130\u00e6\u013a\u00af": 7426, "\u00e7\u00ac\u00a6\u00e5\u0132\u012a": 7427, "\u0120someone": 7428, "\u00d1\u0136": 7429, "pload": 7430, "\u00e7\u00bb\u013a": 7431, "auf": 7432, "\u00e4\u00ba\u00ba\u00e5\u0131\u00a3": 7433, "\u0120series": 7434, "antes": 7435, "\u00e1\u00bb\u00a9": 7436, "\u00ec\u0139\u0132": 7437, "\u00d0\u00bd\u00d0\u00b8\u00d0\u00b5": 7438, "}\u010d\u010a": 7439, "aced": 7440, "\u0120receive": 7441, "\u00e5\u00a4\u012f\u00e6\u013f\u0124": 7442, "\u00e6\u013b\u00ae\u00e9\u0122\u013c": 7443, "\u0120Red": 7444, "\u0120half": 7445, "ffect": 7446, "\u0120third": 7447, ".v": 7448, "\u00e8\u00bf\u00b7": 7449, "\u0120customers": 7450, "\u00ea\u00b0": 7451, "\u00e8\u013c": 7452, "\u0120front": 7453, "\u00e8\u0124\u0142": 7454, "rt": 7455, "\u00e5\u0136\u00b1": 7456, "\u0120matter": 7457, "\u0120Ed": 7458, "illa": 7459, "\u00e6\u0142\u00b9\u00e6\u013e\u00ac": 7460, "\u00e8\u00a3\u0123": 7461, "\u00e5\u00a3\u0123": 7462, "\u00e9\u0124\u00a3\u00e4\u00b8\u00aa": 7463, "\u00e6\u013e\u00ba\u00e5\u0127\u00b3": 7464, "math": 7465, "\u00d8\u00aa\u00d8\u00b1": 7466, "\u00e5\u0133\u00bd\u00e4\u00bb\u00a4": 7467, "\u0120fi": 7468, "\u00e5\u012a\u0128\u00e9\u0134\u0141": 7469, "hing": 7470, "\u00e5\u00a2\u0140\u00e5\u00bc\u00ba": 7471, "\u00e9\u00b2\u0123": 7472, "Pre": 7473, "\u00c3\u00a9d": 7474, "\u0120running": 7475, "\u0120extends": 7476, "\u00e8\u0125\u00b6": 7477, "\u00e2\u0136": 7478, "nder": 7479, "-C": 7480, "\u0120\u00cf\u0126\u00ce\u00bf": 7481, "\u0120decision": 7482, "Controller": 7483, "\u00d0\u00b8\u00d0\u00bb\u00d0\u00b0": 7484, "').": 7485, "\u0120location": 7486, "mos": 7487, "\u0120\u00d0\u00b1\u00d1\u0125\u00d0\u00b4\u00d0\u00b5\u00d1\u0124": 7488, "\u0120dim": 7489, "template": 7490, "\u00cf\u0125\u00ce\u00b7": 7491, "\u0120circ": 7492, "\u00e6\u00b5\u012d\u00e8\u00af\u0137": 7493, "Fl": 7494, "aten": 7495, "entes": 7496, "\u0120\u00d1\u0123\u00d1\u0122\u00d0\u00b5\u00d0\u00b4": 7497, "\u00e9\u0122\u0134": 7498, "\u00e8\u00b7\u00b3": 7499, "\u00e6\u0138\u0129\u00e5\u0143\u00a6": 7500, "\u0120einen": 7501, "\u0120f\u00c3\u00b6r": 7502, "font": 7503, "\u00e8\u00b5\u00b5": 7504, "\u00d0\u00b0\u00d1\u0122\u00d1\u0124": 7505, "\u0120pet": 7506, "\u00e4\u00b9\u00a6\u00e8\u00ae\u00b0": 7507, ".st": 7508, "\u0120bes": 7509, "Change": 7510, "\u00e8\u00af\u0137\u00e9\u00aa\u012e": 7511, "\u0120instit": 7512, "host": 7513, "\u00cf\u012b\u00ce\u00bd": 7514, "rar": 7515, "vest": 7516, "\u0120ih": 7517, "\u0120details": 7518, "DA": 7519, "\u0120upon": 7520, "\u00e7\u0123\u00be": 7521, "\u00e6\u00bd\u013e": 7522, "\u0120align": 7523, "\u0120Def": 7524, "\u00e6\u00a9": 7525, "\u0120\u00d0\u013f\u00d0\u00b0": 7526, ",\u00e8\u00a6\u0123": 7527, "Det": 7528, "\u0120\u00d1\u012f\u00d0\u00ba": 7529, "\u0120'./": 7530, "\u00e4\u00bb\u013b": 7531, "uto": 7532, "Ent": 7533, "\u0120screen": 7534, "\u00e7\u00bb\u00aa": 7535, "\u0120temper": 7536, "System": 7537, "istics": 7538, "\u00d0\u00b0\u00d0\u00bd\u00d0\u00b4": 7539, "alle": 7540, "\u0120click": 7541, "YPE": 7542, "\u0120usually": 7543, "\u0120\u00d0\u00bb\u00d1\u0130\u00d0\u00b1": 7544, "\u0120\u00d1\u0123\u00d1\u0124\u00d1\u0122\u00d0\u00b0": 7545, "ijn": 7546, "\u0120Sm": 7547, "\u00e8\u0124\u00ba": 7548, "\u0120console": 7549, "())": 7550, "\u00e7\u012c\u00af\u00e7\u00bd\u00aa": 7551, "\u0120leaders": 7552, "acebook": 7553, "\u00d0\u00b5\u00d0\u00bc\u00d1\u0125": 7554, "\u00d0\u00b5\u00d1\u0123\u00d1\u012e": 7555, "\u0120sen": 7556, "\u0120k\u00c3\u00b6n": 7557, ",\u00e5\u0131\u00af\u00e4\u00bb\u00a5": 7558, "\u0120kh\u00c3\u00b4ng": 7559, "\u00ec\u0142": 7560, "\u00e5\u0133\u012c\u00e8\u00af\u012b": 7561, "inition": 7562, "\u0120programs": 7563, "\u00e5\u00a6\u0124\u00e4\u00b8\u012d": 7564, "\u00c4\u00b1l": 7565, "oring": 7566, "\u0120frame": 7567, "\u0120regul": 7568, "ische": 7569, "\u0120mas": 7570, "\u00e8\u00bf\u013b\u00e6\u013a\u00af": 7571, "\u0120CO": 7572, "\u0120multiple": 7573, "auth": 7574, "etch": 7575, "edia": 7576, "\u0120See": 7577, "\u00e4\u00ba\u012d\u00e4\u00b8\u013c": 7578, "column": 7579, "\u00e5\u00ae\u00b6\u00e9\u0137\u00bf": 7580, "\u00e7\u00b2\u0134": 7581, "\u0120kan": 7582, "Call": 7583, "\u0120film": 7584, "inn": 7585, "ipal": 7586, "\u00e5\u0126\u00bf\u00e7\u00ab\u00a5": 7587, "enses": 7588, "\u0120countries": 7589, "\u00ef\u00bc\u012e\u00e8\u0122\u012e\u00e4\u00b8\u0136": 7590, "Handler": 7591, "ategy": 7592, "\u00ce\u00b2": 7593, "\u00ec\u0140": 7594, "weight": 7595, "\u0120commit": 7596, "\u0120comment": 7597, "\u0120contribut": 7598, "\u0120\u0120\u0120\u0120\u0120\u0120\u0120\u0120\u0120\u0120\u0120\u0120\u0120\u0120": 7599, "\u0120wait": 7600, "\u0120After": 7601, "],\u010a": 7602, "\u00e6\u0131\u0131\u00e8\u00bf\u00b0": 7603, "\u0120Sim": 7604, "bra": 7605, "\u00e2\u0122\u00a6\u010a": 7606, "\u0120everything": 7607, ".\u00e5\u013e\u00a8": 7608, "\u0120Ac": 7609, "\u0120doc": 7610, "\u00e8\u00b0\u00b7": 7611, "eler": 7612, "\u0120Mod": 7613, "\u0120longer": 7614, "Per": 7615, "\u00e7\u012d\u00ac\u00e7\u00ab\u012d": 7616, "level": 7617, "\u00e6\u013f\u00a5\u00e8\u0129\u00aa": 7618, "\u0120kann": 7619, "ald": 7620, "\u0120member": 7621, "sem": 7622, "\u0120subst": 7623, "\u0120\u00ce\u00bd": 7624, "\u0120nur": 7625, "\u00d8\u00a7\u00d8\u00a1": 7626, "Line": 7627, "vey": 7628, "\u00e5\u00a4\u013c\u00e6\u0137\u00b0": 7629, "lear": 7630, "\u00d0\u00b5\u00d0\u00bd\u00d0\u00b0": 7631, "\u0120almost": 7632, "\u00e3\u0125\u0137": 7633, "\u00e4\u00bd\u0142\u00e4\u00bb\u00ac": 7634, "\u0120professional": 7635, "\u00e6\u00b6\u00a8": 7636, "\u0120avoid": 7637, "\u00e5\u0131\u00a6\u00e4\u00b8\u0122": 7638, "\u00e7\u0126\u00a6": 7639, "\u0120region": 7640, "\u0120influ": 7641, "\u0120render": 7642, "\u00e5\u00aa\u0134\u00e4\u00bd\u0135": 7643, "\u00e5\u0143\u0132\u00e7\u013c\u0126": 7644, "\u0120staff": 7645, "\u00e6\u00a6\u0124\u00e5\u00bf\u00b5": 7646, "pid": 7647, "\u00e2\u0133\u00a1": 7648, "(new": 7649, "\u00e6\u0138\u00b0\u00e9\u0139\u00bb": 7650, "\u0120\u00e4\u00b8\u0122": 7651, "\u0120death": 7652, "/j": 7653, "\u0120actual": 7654, "\u00e5\u00bf\u00ab\u00e9\u0122\u0141": 7655, "\u0120fast": 7656, "~~": 7657, "\u00e7\u012a\u00b6\u00e6\u00af\u012f": 7658, "\u0120received": 7659, "\u0120ci": 7660, "(r": 7661, "\u00e5\u0139": 7662, "\u00ce\u00af\u00ce\u00b1": 7663, "\u00e6\u00af\u0131\u00e5\u00a4\u00a9": 7664, "\u00e8\u00be\u0128": 7665, "\u00e8\u0132\u00bd\u00e5\u00ae\u0140": 7666, "\u0120oil": 7667, "Gener": 7668, "\u00ce\u00bc\u00ce\u00b1": 7669, "\u00e9\u0141\u00a9": 7670, "\u0120miss": 7671, "\u00e8\u00bf\u00b9": 7672, "\u00e3\u0123\u0135\u00e3\u0123\u00a8": 7673, "ceed": 7674, "\u00e5\u00b9\u00b2\u00e9\u0125\u00a8": 7675, "ropri": 7676, "\u0120Center": 7677, "\u00e7\u00bb\u0131\u00e5\u00b8\u00b8": 7678, "\u00e5\u00bf\u0128": 7679, "\u00d0\u00be\u00d0\u00bb\u00d0\u00b5\u00d0\u00b5": 7680, "\u0120ful": 7681, "\u00e6\u00b8\u00a9\u00e5\u00ba\u00a6": 7682, "\u00e6\u00b9\u00be": 7683, "\u0120frequ": 7684, "?:": 7685, "\u0120nom": 7686, "\u00e6\u0138\u0129\u00e7\u00ab\u0142": 7687, "\u00e7\u0134": 7688, "\u0120sn": 7689, "\u0120digital": 7690, "\u0120structure": 7691, "ao": 7692, "conf": 7693, "\u00d1\u0129\u00d0\u00b8\u00d1\u0124": 7694, "Check": 7695, "Ass": 7696, "\u0120regular": 7697, "\u0120credit": 7698, "\u0120n\u00c3\u00a3o": 7699, "summary": 7700, "room": 7701, "options": 7702, "\u0120Form": 7703, "alled": 7704, "enden": 7705, "ANT": 7706, "\u00e4\u00bc\u012c": 7707, "\u00e7\u0136\u00b5\u00e8\u00a7\u0128": 7708, "-sh": 7709, "\u00e7\u012b\u00b9\u00e6\u00ae\u012c": 7710, "\u0120ability": 7711, "\u00e6\u00a2\u00b0": 7712, "\u0120\u00e5\u00b9\u00b4": 7713, "\u00e5\u00b7\u00a7": 7714, "udo": 7715, "\u0120conduct": 7716, "\u0120perfect": 7717, "reen": 7718, "\u00e3\u0124\u0123": 7719, "\u00e5\u00bf\u013a": 7720, "\u00e9\u0125\u00bd\u00e4\u00bc\u013c": 7721, "Comp": 7722, "\u0120effective": 7723, "\u0120allows": 7724, "\u0120official": 7725, "\u0120activities": 7726, "\u0120ground": 7727, "verse": 7728, "\u00d8\u00b1\u00d9\u012a": 7729, "Version": 7730, "reet": 7731, "\u0120ya": 7732, "\u0120gar": 7733, "\u0120enjoy": 7734, "\u0120a\u00c3\u00b1": 7735, "\u0120\u00d0\u00bf\u00d0\u00be\u00d0\u00b7": 7736, "lier": 7737, "uate": 7738, "ola": 7739, "\u0109b": 7740, "\u00e9\u0140": 7741, "atur": 7742, "Property": 7743, "rage": 7744, "\u0120improve": 7745, "\u00e3\u0123\u00a9": 7746, "\u00c3\u0142y": 7747, "\u00e8\u00bf\u0140\u00e6\u0130\u00a5": 7748, "\u00e4\u00b9\u0141\u00e6\u013e\u012b": 7749, "\u0120famil": 7750, "\u00e8\u00bf\u0127": 7751, "\u0120instead": 7752, "erve": 7753, ".md": 7754, "\u00e4\u00bc\u00a6": 7755, "IZ": 7756, "click": 7757, "\u00e4\u00b9\u013a": 7758, "\u00e8\u0122\u0132": 7759, "\u0120Ang": 7760, "\u0120Her": 7761, "\u0120bed": 7762, "\u0120benefits": 7763, "\u00e7\u013c\u0126\u00e9\u00ab\u013a": 7764, "\u0120favor": 7765, "Server": 7766, "\u0120calcul": 7767, "och": 7768, "\u00e6\u0139\u0142\u00e8\u00ae\u00ba": 7769, ",\u00e5\u00b0\u0128": 7770, "Output": 7771, "\u00e5\u00a7\u0136\u00e5\u0133\u013a\u00e4\u00bc\u013c": 7772, "\u00e6\u0137\u00b0\u00e9\u0129\u0131": 7773, "\u0120Work": 7774, "\u00e8\u0126\u0131": 7775, "aily": 7776, "\u0120active": 7777, "_file": 7778, "\u00e5\u00ae\u012b\u00e8\u00a3\u0127": 7779, "Action": 7780, "\u00e9\u00a3\u0141\u00e5\u0135\u0123": 7781, "UP": 7782, "Stream": 7783, "\u0120ze": 7784, "grad": 7785, "\u00e5\u0141\u00ba\u00e9\u0129\u0133": 7786, "\u0120music": 7787, "sz": 7788, "\u00d0\u00be\u00d0\u00b2\u00d0\u00b0": 7789, "term": 7790, "\u00e5\u00b9\u00b4\u00e6\u013f\u00a5": 7791, "pped": 7792, "inder": 7793, "\u00e8\u00af\u00ba": 7794, "\u0120hol": 7795, "End": 7796, "idade": 7797, "iance": 7798, "Base": 7799, "\u00d0\u00bc\u00d0\u00be\u00d0\u00b6": 7800, "\u0120ded": 7801, "\u00e1\u00bb\u0141": 7802, "\u00e6\u0137\u00b4\u00e4\u00bd\u0135": 7803, "\u0120mode": 7804, "///": 7805, "\u0120near": 7806, "\u00e7\u0124\u00bc": 7807, "\u0120Windows": 7808, "\u0120cells": 7809, "\u00e8\u00ae\u00a8\u00e8\u00ae\u00ba": 7810, "\u0120RE": 7811, "\u00e3\u0124\u00b3": 7812, "\u00d0\u00a4": 7813, "ismo": 7814, "\u00e5\u0131\u012c\u00e5\u0127\u00b6": 7815, "\u0120associated": 7816, "\u00e5\u00b0\u00be": 7817, "\u0120included": 7818, "\u00e7\u00bb\u0135\u00e6\u013f\u0141": 7819, "\u00e8\u00b4\u00af": 7820, "\u00d0\u00bf\u00d0\u00be\u00d0\u00bb": 7821, "DF": 7822, "vas": 7823, "\u0120Off": 7824, "\u0120feature": 7825, "\u00e4\u00bc\u013a\u00e7\u00a7\u0122": 7826, "cons": 7827, "\u0120told": 7828, "\u0120please": 7829, "\u0120tool": 7830, "Source": 7831, "\u00e3\u0125\u0143": 7832, "pg": 7833, "\u0120transl": 7834, "\u00e8\u00bf\u013d\u00e8\u00a1\u012e\u00e4\u00ba\u0128": 7835, "\u0120anything": 7836, "\u00e6\u0132\u0143": 7837, "/v": 7838, "\u0120wr": 7839, "\u0120itself": 7840, "see": 7841, "\u00e6\u00b3\u00a5": 7842, "dom": 7843, "\u00e3\u0122\u0124\u00e2\u0122\u013e": 7844, "ran": 7845, "lam": 7846, "iva": 7847, "\u0120description": 7848, "\u0120send": 7849, "\u00e6\u0133\u00a9": 7850, "\u00e7\u013d\u0141": 7851, "\u0120six": 7852, "mut": 7853, "\u00e8\u00ae\u00be\u00e6\u0138\u00bd": 7854, "\u00e8\u00af\u0123\u00e6\u013a\u0130": 7855, "\u00d0\u00bc\u00d0\u00b5\u00d1\u0124": 7856, "\u00e7\u0130\u00b0\u00e5\u00ae\u0140": 7857, "ambi": 7858, "\u00d0\u00b8\u00d1\u0122\u00d0\u00b0": 7859, "\u00e5\u00a7\u0135": 7860, "\u0120skills": 7861, "\u00d0\u00b5\u00d0\u00b6": 7862, "\u0120international": 7863, ".io": 7864, "\u0120din": 7865, "\u00e5\u00b0\u0131\u00e8\u00af\u00b4": 7866, "\u0120concept": 7867, "\u0109var": 7868, "\u00d0\u00be\u00d1\u0123\u00d1\u012e": 7869, "fs": 7870, "rie": 7871, "\u00e6\u0138\u0129\u00e6\u013a\u0130": 7872, "\u0120wel": 7873, "\u00e8\u0123\u0136\u00e7\u00bd\u0133": 7874, "\u0120\u00d1\u0125\u00d0\u00b4": 7875, "\u0120zum": 7876, "ATH": 7877, "rib": 7878, "\u0120popular": 7879, "\u00ef\u00bc\u0141\u00e2\u0122\u013f\u010a": 7880, "ellen": 7881, "\u0120designed": 7882, "\u00e1\u00bb\u0129": 7883, "\u00e7\u00bb\u0137": 7884, "\u00e5\u00ba\u0136\u00e7\u013c\u0126": 7885, "\u0120sil": 7886, "\u0120einer": 7887, "\u0120Our": 7888, "\u0120Count": 7889, "exp": 7890, "\u0120tro": 7891, "dated": 7892, "coming": 7893, "\u00e6\u013f\u00a5\u00e7\u013e\u012d": 7894, "\u0120\u00d0\u00be\u00d1\u0129": 7895, "\u00e5\u013e\u00b0\u00e5\u013f\u0122": 7896, "\u00e5\u012b\u0133": 7897, "\u00e5\u00b7\u00ae\u00e5\u00bc\u0124": 7898, "\u0120activity": 7899, "\u0120China": 7900, "\u00e8\u00a7\u012a": 7901, "\u0120jud": 7902, "\u00e6\u0123\u00a2": 7903, "\u00e4\u00b9\u0131": 7904, "\u00e8\u00ae\u00a1\u00e7\u00ae\u0139\u00e6\u013e\u00ba": 7905, "\u0120City": 7906, ",\u00e5\u013d\u0142\u00e4\u00b8\u00ba": 7907, "ala": 7908, "\u0120\u00d0\u00ba\u00d0\u00be\u00d1\u0122": 7909, "\u0120exact": 7910, "\u0120\u00d8\u00a7\u00d9\u0126\u00d8\u00b9": 7911, "\u0120nature": 7912, "\u00d9\u0127\u00d8\u00a7": 7913, "\u00e6\u012b\u00b6": 7914, "usiness": 7915, "\u00e5\u00a4\u013c\u00e5\u00b0\u0133": 7916, "IA": 7917, "\u00e6\u012e\u0124": 7918, "ono": 7919, "\u00e6\u013c\u0138": 7920, "\u00e5\u0123\u00bf": 7921, "\u0120\u00d0\u00ba\u00d1\u0122\u00d0\u00b0": 7922, "\u0120nav": 7923, "-align": 7924, "\u00e5\u00b8\u00a6\u00e6\u013f\u00a5": 7925, "XX": 7926, "\u0120proper": 7927, "\u0120forward": 7928, "\u00ef\u00bc\u0123\u00e2\u0122\u013f\u010a": 7929, "_R": 7930, "\u00ef\u00bc\u012e\u00e8\u00a6\u0123": 7931, "\u0120root": 7932, "\u0120stay": 7933, "\u0120modern": 7934, "\u0120costs": 7935, "\u00e6\u00b7\u00b1\u00e5\u0127\u00a5": 7936, "\u0120Ant": 7937, "\u00e6\u0122\u00a7\u00e8\u0125\u00bd": 7938, "OK": 7939, "\u0120sense": 7940, "/n": 7941, "\u00d0\u00ba\u00d0\u00be\u00d0\u00b9": 7942, "\u00e5\u012a\u00b6\u00e4\u00bd\u013e": 7943, ".$": 7944, "vention": 7945, "\u0120altern": 7946, "Te": 7947, "\u00ec\u013f\u0126": 7948, "control": 7949, "ieren": 7950, "\u00e5\u00bc\u0122\u00e6\u0136\u00be": 7951, "\u00e6\u012a\u0132\u00e9\u0137\u00bf": 7952, "\u0120prep": 7953, "\u00e4\u00bd\u0128\u00e6\u013a\u00af": 7954, "it\u00c3\u0142": 7955, "////////////////": 7956, "\u00c2\u00b0": 7957, "SD": 7958, "\u0120save": 7959, "ming": 7960, "\u00e5\u0128\u013e\u00e6\u00b0\u0133": 7961, ",\u00e5\u00a6\u0124\u00e6\u0140\u013e": 7962, "rapper": 7963, "\u00e8\u00b4\u00a6": 7964, "\u00e5\u00be\u0122\u00e5\u00be\u0122": 7965, "\u00e5\u00a5\u012d": 7966, "\u00e3\u0124\u0126": 7967, "\u0120shows": 7968, "\u00e4\u00bf\u0139": 7969, "\u00e8\u0122\u0139": 7970, "\u0120\u00d1\u0124\u00d0\u00b0\u00d0\u00ba\u00d0\u00b6\u00d0\u00b5": 7971, "\u00e6\u0137\u012a\u00e7\u0130\u0129": 7972, "\u00c3\u00a1r": 7973, "\u00e4\u00bd\u0135\u00e8\u0124\u00b2": 7974, "\u0120economic": 7975, ".push": 7976, "\u00e4\u00b8\u012d\u00e9\u013b\u012f": 7977, "\u00c5\u0124a": 7978, "\u0120San": 7979, "\u0120aux": 7980, "ev": 7981, "\u00e8\u00a7\u00a3\u00e9\u0129\u012c": 7982, "\u0120Program": 7983, "vision": 7984, "\u00e4\u00b8\u00b9": 7985, "\u0120construct": 7986, "obj": 7987, "ettings": 7988, "\u0120disease": 7989, "\u0120sec": 7990, "\u00d0\u00b0\u00d0\u00bd\u00d0\u00b8\u00d0\u00b8": 7991, "\u0120Rob": 7992, "\u0120consist": 7993, "_key": 7994, "HO": 7995, "\u0120component": 7996, "\u00e8\u00b4\u013f": 7997, "request": 7998, "\u0120\u00c4\u0132": 7999, "\u0120\u00c5\u0141": 8000, "ami": 8001, "\u0120collect": 8002, "chema": 8003, "\u00e5\u0132\u0130\u00e6\u013f\u00a5": 8004, "adow": 8005, "\u00e6\u00bd\u00ae": 8006, "\u00e5\u0141\u00ba\u00e4\u00ba\u0130": 8007, "\u0120draw": 8008, "\u0120states": 8009, "irit": 8010, "-bottom": 8011, "\u0120living": 8012, "\u00e8\u0122\u0125\u00e8\u00af\u0137": 8013, "\u0120continu": 8014, "\u00e6\u00b4\u00a5": 8015, "bor": 8016, "\u0120((": 8017, "\u0120maintain": 8018, "quence": 8019, "\u0120mill": 8020, "rio": 8021, "\u0120night": 8022, "\u0120React": 8023, "\u00d0\u00be\u00d0\u00b2\u00d0\u00be\u00d1\u0122": 8024, "\u0120condition": 8025, "cem": 8026, "ABLE": 8027,
[...]
